[PAD]
“
”
’
‘
[unused5]
[unused6]
[unused7]
[unused8]
[unused9]
[unused10]
[unused11]
[unused12]
[unused13]
[unused14]
[unused15]
[unused16]
[unused17]
[unused18]
[unused19]
[unused20]
[unused21]
[unused22]
[unused23]
[unused24]
[unused25]
[unused26]
[unused27]
[unused28]
[unused29]
[unused30]
[unused31]
[unused32]
[unused33]
[unused34]
[unused35]
[unused36]
[unused37]
[unused38]
[unused39]
[unused40]
[unused41]
[unused42]
[unused43]
[unused44]
[unused45]
[unused46]
[unused47]
[unused48]
[unused49]
[unused50]
[unused51]
[unused52]
[unused53]
[unused54]
[unused55]
[unused56]
[unused57]
[unused58]
[unused59]
[unused60]
[unused61]
[unused62]
[unused63]
[unused64]
[unused65]
[unused66]
[unused67]
[unused68]
[unused69]
[unused70]
[unused71]
[unused72]
[unused73]
[unused74]
[unused75]
[unused76]
[unused77]
[unused78]
[unused79]
[unused80]
[unused81]
[unused82]
[unused83]
[unused84]
[unused85]
[unused86]
[unused87]
[unused88]
[unused89]
[unused90]
[unused91]
[unused92]
[unused93]
[unused94]
[UNK]
[CLS]
[SEP]
[MASK]
[C]
[E]
<S>
<T>
a
b
c
d
e
f
g
h
i
j
k
l
m
n
o
p
q
r
s
t
u
v
w
x
y
z
і
ј
ᴬ
ᴮ
ᴰ
ᴵ
ᴺ
ᵀ
ᵃ
ᵇ
ᵈ
ᵉ
ᵍ
ᵏ
ᵐ
ᵒ
ᵖ
ᵗ
ᵘ
ᵢ
ᵣ
ᵤ
ᵥ
ᶜ
ᶠ
the
of
and
in
to
was
he
is
as
for
on
with
that
it
his
by
at
from
her
##s
she
you
had
an
were
but
be
this
are
not
my
they
one
which
or
have
him
me
first
all
also
their
has
up
who
out
been
when
after
there
into
new
two
its
##a
time
would
no
what
about
said
we
over
then
other
so
more
##e
can
if
like
back
them
only
some
could
##i
where
just
##ing
during
before
##n
do
##o
made
school
through
than
now
years
most
world
may
between
down
well
three
##d
year
while
will
##ed
##r
##y
later
##t
city
under
around
did
such
being
used
state
people
part
know
against
your
many
second
university
both
national
##er
these
don
known
off
way
until
re
how
even
get
head
...
didn
##ly
team
american
because
de
##l
born
united
film
since
still
long
work
south
us
became
any
high
again
day
family
see
right
man
eyes
house
season
war
states
including
took
life
north
same
each
called
name
much
place
however
go
four
group
another
found
won
area
here
going
10
away
series
left
home
music
best
make
hand
number
company
several
never
last
john
000
very
album
take
end
good
too
following
released
game
played
little
began
district
##m
old
want
those
side
held
own
early
county
ll
league
use
west
##u
face
think
##es
2010
government
##h
march
came
small
general
town
june
##on
line
based
something
##k
september
thought
looked
along
international
2011
air
july
club
went
january
october
our
august
april
york
12
few
2012
2008
east
show
member
college
2009
father
public
##us
come
men
five
set
station
church
##c
next
former
november
room
party
located
december
2013
age
got
2007
##g
system
let
love
2006
though
every
2014
look
song
water
century
without
body
black
night
within
great
women
single
ve
building
large
population
river
named
band
white
started
##an
once
15
20
should
18
2015
service
top
built
british
open
death
king
moved
local
times
children
february
book
why
11
door
need
president
order
final
road
wasn
although
due
major
died
village
third
knew
2016
asked
turned
st
wanted
say
##p
together
received
main
son
served
different
##en
behind
himself
felt
members
power
football
law
voice
play
##in
near
park
history
30
having
2005
16
##man
saw
mother
##al
army
point
front
help
english
street
art
late
hands
games
award
##ia
young
14
put
published
country
division
across
told
13
often
ever
french
london
center
six
red
2017
led
days
include
light
25
find
tell
among
species
really
according
central
half
2004
form
original
gave
office
making
enough
lost
full
opened
must
included
live
given
german
player
run
business
woman
community
cup
might
million
land
2000
court
development
17
short
round
ii
km
seen
class
story
always
become
sure
research
almost
director
council
la
##2
career
things
using
island
##z
couldn
car
##is
24
close
force
##1
better
free
support
control
field
students
2003
education
married
##b
nothing
worked
others
record
big
inside
level
anything
continued
give
james
##3
military
established
non
returned
feel
does
title
written
thing
feet
william
far
co
association
hard
already
2002
##ra
championship
human
western
100
##na
department
hall
role
various
production
21
19
heart
2001
living
fire
version
##ers
##f
television
royal
##4
produced
working
act
case
society
region
present
radio
period
looking
least
total
keep
england
wife
program
per
brother
mind
special
22
##le
am
works
soon
##6
political
george
services
taken
created
##7
further
able
reached
david
union
joined
upon
done
important
social
information
either
##ic
##x
appeared
position
ground
lead
rock
dark
election
23
board
france
hair
course
arms
site
police
girl
instead
real
sound
##v
words
moment
##te
someone
##8
summer
project
announced
san
less
wrote
past
followed
##5
blue
founded
al
finally
india
taking
records
america
##ne
1999
design
considered
northern
god
stop
battle
toward
european
outside
described
track
today
playing
language
28
call
26
heard
professional
low
australia
miles
california
win
yet
green
##ie
trying
blood
##ton
southern
science
maybe
everything
match
square
27
mouth
video
race
recorded
leave
above
##9
daughter
points
space
1998
museum
change
middle
common
##0
move
tv
post
##ta
lake
seven
tried
elected
closed
ten
paul
minister
##th
months
start
chief
return
canada
person
sea
release
similar
modern
brought
rest
hit
formed
mr
##la
1997
floor
event
doing
thomas
1996
robert
care
killed
training
star
week
needed
turn
finished
railway
rather
news
health
sent
example
ran
term
michael
coming
currently
yes
forces
despite
gold
areas
50
stage
fact
29
dead
says
popular
2018
originally
germany
probably
developed
result
pulled
friend
stood
money
running
mi
signed
word
songs
child
eventually
met
tour
average
teams
minutes
festival
current
deep
kind
1995
decided
usually
eastern
seemed
##ness
episode
bed
added
table
indian
private
charles
route
available
idea
throughout
centre
addition
appointed
style
1994
books
eight
construction
press
mean
wall
friends
remained
schools
study
##ch
##um
institute
oh
chinese
sometimes
events
possible
1992
australian
type
brown
forward
talk
process
food
debut
seat
performance
committee
features
character
arts
herself
else
lot
strong
russian
range
hours
peter
arm
##da
morning
dr
sold
##ry
quickly
directed
1993
guitar
china
##w
31
list
##ma
performed
media
uk
players
smile
##rs
myself
40
placed
coach
province
towards
wouldn
leading
whole
boy
official
designed
grand
census
##el
europe
attack
japanese
henry
1991
##re
##os
cross
getting
alone
action
lower
network
wide
washington
japan
1990
hospital
believe
changed
sister
##ar
hold
gone
sir
hadn
ship
##ka
studies
academy
shot
rights
below
base
bad
involved
kept
largest
##ist
bank
future
especially
beginning
mark
movement
section
female
magazine
plan
professor
lord
longer
##ian
sat
walked
hill
actually
civil
energy
model
families
size
thus
aircraft
completed
includes
data
captain
##or
fight
vocals
featured
richard
bridge
fourth
1989
officer
stone
hear
##ism
means
medical
groups
management
self
lips
competition
entire
lived
technology
leaving
federal
tournament
bit
passed
hot
independent
awards
kingdom
mary
spent
fine
doesn
reported
##ling
jack
fall
raised
itself
stay
true
studio
1988
sports
replaced
paris
systems
saint
leader
theatre
whose
market
capital
parents
spanish
canadian
earth
##ity
cut
degree
writing
bay
christian
awarded
natural
higher
bill
##as
coast
provided
previous
senior
ft
valley
organization
stopped
onto
countries
parts
conference
queen
security
interest
saying
allowed
master
earlier
phone
matter
smith
winning
try
happened
moving
campaign
los
##ley
breath
nearly
mid
1987
certain
girls
date
italian
african
standing
fell
artist
##ted
shows
deal
mine
industry
1986
##ng
everyone
republic
provide
collection
library
student
##ville
primary
owned
older
via
heavy
1st
makes
##able
attention
anyone
africa
##ri
stated
length
ended
fingers
command
staff
skin
foreign
opening
governor
okay
medal
kill
sun
cover
job
1985
introduced
chest
hell
feeling
##ies
success
meet
reason
standard
meeting
novel
1984
trade
source
buildings
##land
rose
guy
goal
##ur
chapter
native
husband
previously
unit
limited
entered
weeks
producer
operations
mountain
takes
covered
forced
related
roman
complete
successful
key
texas
cold
##ya
channel
1980
traditional
films
dance
clear
approximately
500
nine
van
prince
question
active
tracks
ireland
regional
silver
author
personal
sense
operation
##ine
economic
1983
holding
twenty
isbn
additional
speed
hour
edition
regular
historic
places
whom
shook
movie
km²
secretary
prior
report
chicago
read
foundation
view
engine
scored
1982
units
ask
airport
property
ready
immediately
lady
month
listed
contract
##de
manager
themselves
lines
##ki
navy
writer
meant
##ts
runs
##ro
practice
championships
singer
glass
commission
required
forest
starting
culture
generally
giving
access
attended
test
couple
stand
catholic
martin
caught
executive
##less
eye
##ey
thinking
chair
quite
shoulder
1979
hope
decision
plays
defeated
municipality
whether
structure
offered
slowly
pain
ice
direction
##ion
paper
mission
1981
mostly
200
noted
individual
managed
nature
lives
plant
##ha
helped
except
studied
computer
figure
relationship
issue
significant
loss
die
smiled
gun
ago
highest
1972
##am
male
bring
goals
mexico
problem
distance
commercial
completely
location
annual
famous
drive
1976
neck
1978
surface
caused
italy
understand
greek
highway
wrong
hotel
comes
appearance
joseph
double
issues
musical
companies
castle
income
review
assembly
bass
initially
parliament
artists
experience
1974
particular
walk
foot
engineering
talking
window
dropped
##ter
miss
baby
boys
break
1975
stars
edge
remember
policy
carried
train
stadium
bar
sex
angeles
evidence
##ge
becoming
assistant
soviet
1977
upper
step
wing
1970
youth
financial
reach
##ll
actor
numerous
##se
##st
nodded
arrived
##ation
minute
##nt
believed
sorry
complex
beautiful
victory
associated
temple
1968
1973
chance
perhaps
metal
##son
1945
bishop
##et
lee
launched
particularly
tree
le
retired
subject
prize
contains
yeah
theory
empire
##ce
suddenly
waiting
trust
recording
##to
happy
terms
camp
champion
1971
religious
pass
zealand
names
2nd
port
ancient
tom
corner
represented
watch
legal
anti
justice
cause
watched
brothers
45
material
changes
simply
response
louis
fast
##ting
answer
60
historical
1969
stories
straight
create
feature
increased
rate
administration
virginia
el
activities
cultural
overall
winner
programs
basketball
legs
guard
beyond
cast
doctor
mm
flight
results
remains
cost
effect
winter
##ble
larger
islands
problems
chairman
grew
commander
isn
1967
pay
failed
selected
hurt
fort
box
regiment
majority
journal
35
edward
plans
##ke
##ni
shown
pretty
irish
characters
directly
scene
likely
operated
allow
spring
##j
junior
matches
looks
mike
houses
fellow
##tion
beach
marriage
##ham
##ive
rules
oil
65
florida
expected
nearby
congress
sam
peace
recent
iii
wait
subsequently
cell
##do
variety
serving
agreed
please
poor
joe
pacific
attempt
wood
democratic
piece
prime
##ca
rural
mile
touch
appears
township
1964
1966
soldiers
##men
##ized
1965
pennsylvania
closer
fighting
claimed
score
jones
physical
editor
##ous
filled
genus
specific
sitting
super
mom
##va
therefore
supported
status
fear
cases
store
meaning
wales
minor
spain
tower
focus
vice
frank
follow
parish
separate
golden
horse
fifth
remaining
branch
32
presented
stared
##id
uses
secret
forms
##co
baseball
exactly
##ck
choice
note
discovered
travel
composed
truth
russia
ball
color
kiss
dad
wind
continue
ring
referred
numbers
digital
greater
##ns
metres
slightly
direct
increase
1960
responsible
crew
rule
trees
troops
##no
broke
goes
individuals
hundred
weight
creek
sleep
memory
defense
provides
ordered
code
value
jewish
windows
1944
safe
judge
whatever
corps
realized
growing
pre
##ga
cities
alexander
gaze
lies
spread
scott
letter
showed
situation
mayor
transport
watching
workers
extended
##li
expression
normal
##ment
chart
multiple
border
##ba
host
##ner
daily
mrs
walls
piano
##ko
heat
cannot
##ate
earned
products
drama
era
authority
seasons
join
grade
##io
sign
difficult
machine
1963
territory
mainly
##wood
stations
squadron
1962
stepped
iron
19th
##led
serve
appear
sky
speak
broken
charge
knowledge
kilometres
removed
ships
article
campus
simple
##ty
pushed
britain
##ve
leaves
recently
cd
soft
boston
latter
easy
acquired
poland
##sa
quality
officers
presence
planned
nations
mass
broadcast
jean
share
image
influence
wild
offer
emperor
electric
reading
headed
ability
promoted
yellow
ministry
1942
throat
smaller
politician
##by
latin
spoke
cars
williams
males
lack
pop
80
##ier
acting
seeing
consists
##ti
estate
1961
pressure
johnson
newspaper
jr
chris
olympics
online
conditions
beat
elements
walking
vote
##field
needs
carolina
text
featuring
global
block
shirt
levels
francisco
purpose
females
et
dutch
duke
ahead
gas
twice
safety
serious
turning
highly
lieutenant
firm
maria
amount
mixed
daniel
proposed
perfect
agreement
affairs
3rd
seconds
contemporary
paid
1943
prison
save
kitchen
label
administrative
intended
constructed
academic
nice
teacher
races
1956
formerly
corporation
ben
nation
issued
shut
1958
drums
housing
victoria
seems
opera
1959
graduated
function
von
mentioned
picked
build
recognized
shortly
protection
picture
notable
exchange
elections
1980s
loved
percent
racing
fish
elizabeth
garden
volume
hockey
1941
beside
settled
##ford
1940
competed
replied
drew
1948
actress
marine
scotland
steel
glanced
farm
steve
1957
risk
tonight
positive
magic
singles
effects
gray
screen
dog
##ja
residents
bus
sides
none
secondary
literature
polish
destroyed
flying
founder
households
1939
lay
reserve
usa
gallery
##ler
1946
industrial
younger
approach
appearances
urban
ones
1950
finish
avenue
powerful
fully
growth
page
honor
jersey
projects
advanced
revealed
basic
90
infantry
pair
equipment
visit
33
evening
search
grant
effort
solo
treatment
buried
republican
primarily
bottom
owner
1970s
israel
gives
jim
dream
bob
remain
spot
70
notes
produce
champions
contact
ed
soul
accepted
ways
del
##ally
losing
split
price
capacity
basis
trial
questions
##ina
1955
20th
guess
officially
memorial
naval
initial
##ization
whispered
median
engineer
##ful
sydney
##go
columbia
strength
300
1952
tears
senate
00
card
asian
agent
1947
software
44
draw
warm
supposed
com
pro
##il
transferred
leaned
##at
candidate
escape
mountains
asia
potential
activity
entertainment
seem
traffic
jackson
murder
36
slow
product
orchestra
haven
agency
bbc
taught
website
comedy
unable
storm
planning
albums
rugby
environment
scientific
grabbed
protect
##hi
boat
typically
1954
1953
damage
principal
divided
dedicated
mount
ohio
##berg
pick
fought
driver
##der
empty
shoulders
sort
thank
berlin
prominent
account
freedom
necessary
efforts
alex
headquarters
follows
alongside
des
simon
andrew
suggested
operating
learning
steps
1949
sweet
technical
begin
easily
34
teeth
speaking
settlement
scale
##sh
renamed
ray
max
enemy
semi
joint
compared
##rd
scottish
leadership
analysis
offers
georgia
pieces
captured
animal
deputy
guest
organized
##lin
tony
combined
method
challenge
1960s
huge
wants
battalion
sons
rise
crime
types
facilities
telling
path
1951
platform
sit
1990s
##lo
tells
assigned
rich
pull
##ot
commonly
alive
##za
letters
concept
conducted
wearing
happen
bought
becomes
holy
gets
ocean
defeat
languages
purchased
coffee
occurred
titled
##q
declared
applied
sciences
concert
sounds
jazz
brain
##me
painting
fleet
tax
nick
##ius
michigan
count
animals
leaders
episodes
##line
content
##den
birth
##it
clubs
64
palace
critical
refused
fair
leg
laughed
returning
surrounding
participated
formation
lifted
pointed
connected
rome
medicine
laid
taylor
santa
powers
adam
tall
shared
focused
knowing
yards
entrance
falls
##wa
calling
##ad
sources
chosen
beneath
resources
yard
##ite
nominated
silence
zone
defined
##que
gained
thirty
38
bodies
moon
##ard
adopted
christmas
widely
register
apart
iran
premier
serves
du
unknown
parties
##les
generation
##ff
continues
quick
fields
brigade
quiet
teaching
clothes
impact
weapons
partner
flat
theater
supreme
1938
37
relations
##tor
plants
suffered
1936
wilson
kids
begins
##age
1918
seats
armed
internet
models
worth
laws
400
communities
classes
background
knows
thanks
quarter
reaching
humans
carry
killing
format
kong
hong
setting
75
architecture
disease
railroad
inc
possibly
wish
arthur
thoughts
harry
doors
density
##di
crowd
illinois
stomach
tone
unique
reports
anyway
##ir
liberal
der
vehicle
thick
dry
drug
faced
largely
facility
theme
holds
creation
strange
colonel
##mi
revolution
bell
politics
turns
silent
rail
relief
independence
combat
shape
write
determined
sales
learned
4th
finger
oxford
providing
1937
heritage
fiction
situated
designated
allowing
distribution
hosted
##est
sight
interview
estimated
reduced
##ria
toronto
footballer
keeping
guys
damn
claim
motion
sport
sixth
stayed
##ze
en
rear
receive
handed
twelve
dress
audience
granted
brazil
##well
spirit
##ated
noticed
etc
olympic
representative
eric
tight
trouble
reviews
drink
vampire
missing
roles
ranked
newly
household
finals
wave
critics
##ee
phase
massachusetts
pilot
unlike
philadelphia
bright
guns
crown
organizations
roof
42
respectively
clearly
tongue
marked
circle
fox
korea
bronze
brian
expanded
sexual
supply
yourself
inspired
labour
fc
##ah
reference
vision
draft
connection
brand
reasons
1935
classic
driving
trip
jesus
cells
entry
1920
neither
trail
claims
atlantic
orders
labor
nose
afraid
identified
intelligence
calls
cancer
attacked
passing
stephen
positions
imperial
grey
jason
39
sunday
48
swedish
avoid
extra
uncle
message
covers
allows
surprise
materials
fame
hunter
##ji
1930
citizens
figures
davis
environmental
confirmed
shit
titles
di
performing
difference
acts
attacks
##ov
existing
votes
opportunity
nor
shop
entirely
trains
opposite
pakistan
##pa
develop
resulted
representatives
actions
reality
pressed
##ish
barely
wine
conversation
faculty
northwest
ends
documentary
nuclear
stock
grace
sets
eat
alternative
##ps
bag
resulting
creating
surprised
cemetery
1919
drop
finding
sarah
cricket
streets
tradition
ride
1933
exhibition
target
ear
explained
rain
composer
injury
apartment
municipal
educational
occupied
netherlands
clean
billion
constitution
learn
1914
maximum
classical
francis
lose
opposition
jose
ontario
bear
core
hills
rolled
ending
drawn
permanent
fun
##tes
##lla
lewis
sites
chamber
ryan
##way
scoring
height
1934
##house
lyrics
staring
55
officials
1917
snow
oldest
##tic
orange
##ger
qualified
interior
apparently
succeeded
thousand
dinner
lights
existence
fans
heavily
41
greatest
conservative
send
bowl
plus
enter
catch
##un
economy
duty
1929
speech
authorities
princess
performances
versions
shall
graduate
pictures
effective
remembered
poetry
desk
crossed
starring
starts
passenger
sharp
##ant
acres
ass
weather
falling
rank
fund
supporting
check
adult
publishing
heads
cm
southeast
lane
##burg
application
bc
##ura
les
condition
transfer
prevent
display
ex
regions
earl
federation
cool
relatively
answered
besides
1928
obtained
portion
##town
mix
##ding
reaction
liked
dean
express
peak
1932
##tte
counter
religion
chain
rare
miller
convention
aid
lie
vehicles
mobile
perform
squad
wonder
lying
crazy
sword
##ping
attempted
centuries
weren
philosophy
category
##ize
anna
interested
47
sweden
wolf
frequently
abandoned
kg
literary
alliance
task
entitled
##ay
threw
promotion
factory
tiny
soccer
visited
matt
fm
achieved
52
defence
internal
persian
43
methods
##ging
arrested
otherwise
cambridge
programming
villages
elementary
districts
rooms
criminal
conflict
worry
trained
1931
attempts
waited
signal
bird
truck
subsequent
programme
##ol
ad
49
communist
details
faith
sector
patrick
carrying
laugh
##ss
controlled
korean
showing
origin
fuel
evil
1927
##ent
brief
identity
darkness
address
pool
missed
publication
web
planet
ian
anne
wings
invited
##tt
briefly
standards
kissed
##be
ideas
climate
causing
walter
worse
albert
articles
winners
desire
aged
northeast
dangerous
gate
doubt
1922
wooden
multi
##ky
poet
rising
funding
46
communications
communication
violence
copies
prepared
ford
investigation
skills
1924
pulling
electronic
##ak
##ial
##han
containing
ultimately
offices
singing
understanding
restaurant
tomorrow
fashion
christ
ward
da
pope
stands
5th
flow
studios
aired
commissioned
contained
exist
fresh
americans
##per
wrestling
approved
kid
employed
respect
suit
1925
angel
asking
increasing
frame
angry
selling
1950s
thin
finds
##nd
temperature
statement
ali
explain
inhabitants
towns
extensive
narrow
51
jane
flowers
images
promise
somewhere
object
fly
closely
##ls
1912
bureau
cape
1926
weekly
presidential
legislative
1921
##ai
##au
launch
founding
##ny
978
##ring
artillery
strike
un
institutions
roll
writers
landing
chose
kevin
anymore
pp
##ut
attorney
fit
dan
billboard
receiving
agricultural
breaking
sought
dave
admitted
lands
mexican
##bury
charlie
specifically
hole
iv
howard
credit
moscow
roads
accident
1923
proved
wear
struck
hey
guards
stuff
slid
expansion
1915
cat
anthony
##kin
melbourne
opposed
sub
southwest
architect
failure
plane
1916
##ron
map
camera
tank
listen
regarding
wet
introduction
metropolitan
link
ep
fighter
inch
grown
gene
anger
fixed
buy
dvd
khan
domestic
worldwide
chapel
mill
functions
examples
##head
developing
1910
turkey
hits
pocket
antonio
papers
grow
unless
circuit
18th
concerned
attached
journalist
selection
journey
converted
provincial
painted
hearing
aren
bands
negative
aside
wondered
knight
lap
survey
ma
##ow
noise
billy
##ium
shooting
guide
bedroom
priest
resistance
motor
homes
sounded
giant
##mer
150
scenes
equal
comic
patients
hidden
solid
actual
bringing
afternoon
touched
funds
wedding
consisted
marie
canal
sr
kim
treaty
turkish
recognition
residence
cathedral
broad
knees
incident
shaped
fired
norwegian
handle
cheek
contest
represent
##pe
representing
beauty
##sen
birds
advantage
emergency
wrapped
drawing
notice
pink
broadcasting
##ong
somehow
bachelor
seventh
collected
registered
establishment
alan
assumed
chemical
personnel
roger
retirement
jeff
portuguese
wore
tied
device
threat
progress
advance
##ised
banks
hired
manchester
nfl
teachers
structures
forever
##bo
tennis
helping
saturday
sale
applications
junction
hip
incorporated
neighborhood
dressed
ceremony
##ds
influenced
hers
visual
stairs
decades
inner
kansas
hung
hoped
gain
scheduled
downtown
engaged
austria
clock
norway
certainly
pale
protected
1913
victor
employees
plate
putting
surrounded
##ists
finishing
blues
tropical
##ries
minnesota
consider
philippines
accept
54
retrieved
1900
concern
anderson
properties
institution
gordon
successfully
vietnam
##dy
backing
outstanding
muslim
crossing
folk
producing
usual
demand
occurs
observed
lawyer
educated
##ana
kelly
string
pleasure
budget
items
quietly
colorado
philip
typical
##worth
derived
600
survived
asks
mental
##ide
56
jake
jews
distinguished
ltd
1911
sri
extremely
53
athletic
loud
thousands
worried
shadow
transportation
horses
weapon
arena
importance
users
tim
objects
contributed
dragon
douglas
aware
senator
johnny
jordan
sisters
engines
flag
investment
samuel
shock
capable
clark
row
wheel
refers
session
familiar
biggest
wins
hate
maintained
drove
hamilton
request
expressed
injured
underground
churches
walker
wars
tunnel
passes
stupid
agriculture
softly
cabinet
regarded
joining
indiana
##ea
##ms
push
dates
spend
behavior
woods
protein
gently
chase
morgan
mention
burning
wake
combination
occur
mirror
leads
jimmy
indeed
impossible
singapore
paintings
covering
##nes
soldier
locations
attendance
sell
historian
wisconsin
invasion
argued
painter
diego
changing
egypt
##don
experienced
inches
##ku
missouri
vol
grounds
spoken
switzerland
##gan
reform
rolling
ha
forget
massive
resigned
burned
allen
tennessee
locked
values
improved
##mo
wounded
universe
sick
dating
facing
pack
purchase
user
##pur
moments
##ul
merged
anniversary
1908
coal
brick
understood
causes
dynasty
queensland
establish
stores
crisis
promote
hoping
views
cards
referee
extension
##si
raise
arizona
improve
colonial
formal
charged
##rt
palm
lucky
hide
rescue
faces
95
feelings
candidates
juan
##ell
goods
6th
courses
weekend
59
luke
cash
fallen
##om
delivered
affected
installed
carefully
tries
swiss
hollywood
costs
lincoln
responsibility
##he
shore
file
proper
normally
maryland
assistance
jump
constant
offering
friendly
waters
persons
realize
contain
trophy
800
partnership
factor
58
musicians
cry
bound
oregon
indicated
hero
houston
medium
##ure
consisting
somewhat
##ara
57
cycle
##che
beer
moore
frederick
gotten
eleven
worst
weak
approached
arranged
chin
loan
universal
bond
fifteen
pattern
disappeared
##ney
translated
##zed
lip
arab
capture
interests
insurance
##chi
shifted
cave
prix
warning
sections
courts
coat
plot
smell
feed
golf
favorite
maintain
knife
vs
voted
degrees
finance
quebec
opinion
translation
manner
ruled
operate
productions
choose
musician
discovery
confused
tired
separated
stream
techniques
committed
attend
ranking
kings
throw
passengers
measure
horror
fan
mining
sand
danger
salt
calm
decade
dam
require
runner
##ik
rush
associate
greece
##ker
rivers
consecutive
matthew
##ski
sighed
sq
documents
steam
edited
closing
tie
accused
1905
##ini
islamic
distributed
directors
organisation
bruce
7th
breathing
mad
lit
arrival
concrete
taste
08
composition
shaking
faster
amateur
adjacent
stating
1906
twin
flew
##ran
tokyo
publications
##tone
obviously
ridge
storage
1907
carl
pages
concluded
desert
driven
universities
ages
terminal
sequence
borough
250
constituency
creative
cousin
economics
dreams
margaret
notably
reduce
montreal
mode
17th
ears
saved
jan
vocal
##ica
1909
andy
##jo
riding
roughly
threatened
##ise
meters
meanwhile
landed
compete
repeated
grass
czech
regularly
charges
tea
sudden
appeal
##ung
solution
describes
pierre
classification
glad
parking
##ning
belt
physics
99
rachel
add
hungarian
participate
expedition
damaged
gift
childhood
85
fifty
##red
mathematics
jumped
letting
defensive
mph
##ux
##gh
testing
##hip
hundreds
shoot
owners
matters
smoke
israeli
kentucky
dancing
mounted
grandfather
emma
designs
profit
argentina
##gs
truly
li
lawrence
cole
begun
detroit
willing
branches
smiling
decide
miami
enjoyed
recordings
##dale
poverty
ethnic
gay
##bi
gary
arabic
09
accompanied
##one
##ons
fishing
determine
residential
acid
##ary
alice
returns
starred
mail
##ang
jonathan
strategy
##ue
net
forty
cook
businesses
equivalent
commonwealth
distinct
ill
##cy
seriously
##ors
##ped
shift
harris
replace
rio
imagine
formula
ensure
##ber
additionally
scheme
conservation
occasionally
purposes
feels
favor
##and
##ore
1930s
contrast
hanging
hunt
movies
1904
instruments
victims
danish
christopher
busy
demon
sugar
earliest
colony
studying
balance
duties
##ks
belgium
slipped
carter
05
visible
stages
iraq
fifa
##im
commune
forming
zero
07
continuing
talked
counties
legend
bathroom
option
tail
clay
daughters
afterwards
severe
jaw
visitors
##ded
devices
aviation
russell
kate
##vi
entering
subjects
##ino
temporary
swimming
forth
smooth
ghost
audio
bush
operates
rocks
movements
signs
eddie
##tz
ann
voices
honorary
06
memories
dallas
pure
measures
racial
promised
66
harvard
ceo
16th
parliamentary
indicate
benefit
flesh
dublin
louisiana
1902
1901
patient
sleeping
1903
membership
coastal
medieval
wanting
element
scholars
rice
62
limit
survive
makeup
rating
definitely
collaboration
obvious
##tan
boss
ms
baron
birthday
linked
soil
diocese
##lan
ncaa
##mann
offensive
shell
shouldn
waist
##tus
plain
ross
organ
resolution
manufacturing
adding
relative
kennedy
98
whilst
moth
marketing
gardens
crash
72
heading
partners
credited
carlos
moves
cable
##zi
marshall
##out
depending
bottle
represents
rejected
responded
existed
04
jobs
denmark
lock
##ating
treated
graham
routes
talent
commissioner
drugs
secure
tests
reign
restored
photography
##gi
contributions
oklahoma
designer
disc
grin
seattle
robin
paused
atlanta
unusual
##gate
praised
las
laughing
satellite
hungary
visiting
##sky
interesting
factors
deck
poems
norman
##water
stuck
speaker
rifle
domain
premiered
##her
dc
comics
actors
01
reputation
eliminated
8th
ceiling
prisoners
script
##nce
leather
austin
mississippi
rapidly
admiral
parallel
charlotte
guilty
tools
gender
divisions
fruit
##bs
laboratory
nelson
fantasy
marry
rapid
aunt
tribe
requirements
aspects
suicide
amongst
adams
bone
ukraine
abc
kick
sees
edinburgh
clothing
column
rough
gods
hunting
broadway
gathered
concerns
##ek
spending
ty
12th
snapped
requires
solar
bones
cavalry
##tta
iowa
drinking
waste
index
franklin
charity
thompson
stewart
tip
flash
landscape
friday
enjoy
singh
poem
listening
##back
eighth
fred
differences
adapted
bomb
ukrainian
surgery
corporate
masters
anywhere
##more
waves
odd
sean
portugal
orleans
dick
debate
kent
eating
puerto
cleared
96
expect
cinema
97
guitarist
blocks
electrical
agree
involving
depth
dying
panel
struggle
##ged
peninsula
adults
novels
emerged
vienna
metro
debuted
shoes
tamil
songwriter
meets
prove
beating
instance
heaven
scared
sending
marks
artistic
passage
superior
03
significantly
shopping
##tive
retained
##izing
malaysia
technique
cheeks
##ola
warren
maintenance
destroy
extreme
allied
120
appearing
##yn
fill
advice
alabama
qualifying
policies
cleveland
hat
battery
smart
authors
10th
soundtrack
acted
dated
lb
glance
equipped
coalition
funny
outer
ambassador
roy
possibility
couples
campbell
dna
loose
ethan
supplies
1898
gonna
88
monster
##res
shake
agents
frequency
springs
dogs
practices
61
gang
plastic
easier
suggests
gulf
blade
exposed
colors
industries
markets
pan
nervous
electoral
charts
legislation
ownership
##idae
mac
appointment
shield
copy
assault
socialist
abbey
monument
license
throne
employment
jay
93
replacement
charter
cloud
powered
suffering
accounts
oak
connecticut
strongly
wright
colour
crystal
13th
context
welsh
networks
voiced
gabriel
jerry
##cing
forehead
mp
##ens
manage
schedule
totally
remix
##ii
forests
occupation
print
nicholas
brazilian
strategic
vampires
engineers
76
roots
seek
correct
instrumental
und
alfred
backed
hop
##des
stanley
robinson
traveled
wayne
welcome
austrian
achieve
67
exit
rates
1899
strip
whereas
##cs
sing
deeply
adventure
bobby
rick
jamie
careful
components
cap
useful
personality
knee
##shi
pushing
hosts
02
protest
ca
ottoman
symphony
##sis
63
boundary
1890
processes
considering
considerable
tons
##work
##ft
##nia
cooper
trading
dear
conduct
91
illegal
apple
revolutionary
holiday
definition
harder
##van
jacob
circumstances
destruction
##lle
popularity
grip
classified
liverpool
donald
baltimore
flows
seeking
honour
approval
92
mechanical
till
happening
statue
critic
increasingly
immediate
describe
commerce
stare
##ster
indonesia
meat
rounds
boats
baker
orthodox
depression
formally
worn
naked
claire
muttered
sentence
11th
emily
document
77
criticism
wished
vessel
spiritual
bent
virgin
parker
minimum
murray
lunch
danny
printed
compilation
keyboards
false
blow
belonged
68
raising
78
cutting
##board
pittsburgh
##up
9th
shadows
81
hated
indigenous
jon
15th
barry
scholar
ah
##zer
oliver
##gy
stick
susan
meetings
attracted
spell
romantic
##ver
ye
1895
photo
demanded
customers
##ac
1896
logan
revival
keys
modified
commanded
jeans
##ious
upset
raw
phil
detective
hiding
resident
vincent
##bly
experiences
diamond
defeating
coverage
lucas
external
parks
franchise
helen
bible
successor
percussion
celebrated
il
lift
profile
clan
romania
##ied
mills
##su
nobody
achievement
shrugged
fault
1897
rhythm
initiative
breakfast
carbon
700
69
lasted
violent
74
wound
ken
killer
gradually
filmed
°c
dollars
processing
94
remove
criticized
guests
sang
chemistry
##vin
legislature
disney
##bridge
uniform
escaped
integrated
proposal
purple
denied
liquid
karl
influential
morris
nights
stones
intense
experimental
twisted
71
84
##ld
pace
nazi
mitchell
ny
blind
reporter
newspapers
14th
centers
burn
basin
forgotten
surviving
filed
collections
monastery
losses
manual
couch
description
appropriate
merely
tag
missions
sebastian
restoration
replacing
triple
73
elder
julia
warriors
benjamin
julian
convinced
stronger
amazing
declined
versus
merchant
happens
output
finland
bare
barbara
absence
ignored
dawn
injuries
##port
producers
##ram
82
luis
##ities
kw
admit
expensive
electricity
nba
exception
symbol
##ving
ladies
shower
sheriff
characteristics
##je
aimed
button
ratio
effectively
summit
angle
jury
bears
foster
vessels
pants
executed
evans
dozen
advertising
kicked
patrol
1889
competitions
lifetime
principles
athletics
##logy
birmingham
sponsored
89
rob
nomination
1893
acoustic
##sm
creature
longest
##tra
credits
harbor
dust
josh
##so
territories
milk
infrastructure
completion
thailand
indians
leon
archbishop
##sy
assist
pitch
blake
arrangement
girlfriend
serbian
operational
hence
sad
scent
fur
dj
sessions
hp
refer
rarely
##ora
exists
1892
##ten
scientists
dirty
penalty
burst
portrait
seed
79
pole
limits
rival
1894
stable
alpha
grave
constitutional
alcohol
arrest
flower
mystery
devil
architectural
relationships
greatly
habitat
##istic
larry
progressive
remote
cotton
##ics
##ok
preserved
reaches
##ming
cited
86
vast
scholarship
decisions
cbs
joy
teach
1885
editions
knocked
eve
searching
partly
participation
gap
animated
fate
excellent
##ett
na
87
alternate
saints
youngest
##ily
climbed
##ita
##tors
suggest
##ct
discussion
staying
choir
lakes
jacket
revenue
nevertheless
peaked
instrument
wondering
annually
managing
neil
1891
signing
terry
##ice
apply
clinical
brooklyn
aim
catherine
fuck
farmers
figured
ninth
pride
hugh
evolution
ordinary
involvement
comfortable
shouted
tech
encouraged
taiwan
representation
sharing
##lia
##em
panic
exact
cargo
competing
fat
cried
83
1920s
occasions
pa
cabin
borders
utah
marcus
##isation
badly
muscles
##ance
victorian
transition
warner
bet
permission
##rin
slave
terrible
similarly
shares
seth
uefa
possession
medals
benefits
colleges
lowered
perfectly
mall
transit
##ye
##kar
publisher
##ened
harrison
deaths
elevation
##ae
asleep
machines
sigh
ash
hardly
argument
occasion
parent
leo
decline
1888
contribution
##ua
concentration
1000
opportunities
hispanic
guardian
extent
emotions
hips
mason
volumes
bloody
controversy
diameter
steady
mistake
phoenix
identify
violin
##sk
departure
richmond
spin
funeral
enemies
1864
gear
literally
connor
random
sergeant
grab
confusion
1865
transmission
informed
op
leaning
sacred
suspended
thinks
gates
portland
luck
agencies
yours
hull
expert
muscle
layer
practical
sculpture
jerusalem
latest
lloyd
statistics
deeper
recommended
warrior
arkansas
mess
supports
greg
eagle
1880
recovered
rated
concerts
rushed
##ano
stops
eggs
files
premiere
keith
##vo
delhi
turner
pit
affair
belief
paint
##zing
mate
##ach
##ev
victim
##ology
withdrew
bonus
styles
fled
##ud
glasgow
technologies
funded
nbc
adaptation
##ata
portrayed
cooperation
supporters
judges
bernard
justin
hallway
ralph
##ick
graduating
controversial
distant
continental
spider
bite
##ho
recognize
intention
mixing
##ese
egyptian
bow
tourism
suppose
claiming
tiger
dominated
participants
vi
##ru
nurse
partially
tape
##rum
psychology
##rn
essential
touring
duo
voting
civilian
emotional
channels
##king
apparent
hebrew
1887
tommy
carrier
intersection
beast
hudson
##gar
##zo
lab
nova
bench
discuss
costa
##ered
detailed
behalf
drivers
unfortunately
obtain
##lis
rocky
##dae
siege
friendship
honey
##rian
1861
amy
hang
posted
governments
collins
respond
wildlife
preferred
operator
##po
laura
pregnant
videos
dennis
suspected
boots
instantly
weird
automatic
businessman
alleged
placing
throwing
ph
mood
1862
perry
venue
jet
remainder
##lli
##ci
passion
biological
boyfriend
1863
dirt
buffalo
ron
segment
fa
abuse
##era
genre
thrown
stroke
colored
stress
exercise
displayed
##gen
struggled
##tti
abroad
dramatic
wonderful
thereafter
madrid
component
widespread
##sed
tale
citizen
todd
monday
1886
vancouver
overseas
forcing
crying
descent
##ris
discussed
substantial
ranks
regime
1870
provinces
switch
drum
zane
ted
tribes
proof
lp
cream
researchers
volunteer
manor
silk
milan
donated
allies
venture
principle
delivery
enterprise
##ves
##ans
bars
traditionally
witch
reminded
copper
##uk
pete
inter
links
colin
grinned
elsewhere
competitive
frequent
##oy
scream
##hu
tension
texts
submarine
finnish
defending
defend
pat
detail
1884
affiliated
stuart
themes
villa
periods
tool
belgian
ruling
crimes
answers
folded
licensed
resort
demolished
hans
lucy
1881
lion
traded
photographs
writes
craig
##fa
trials
generated
beth
noble
debt
percentage
yorkshire
erected
ss
viewed
grades
confidence
ceased
islam
telephone
retail
##ible
chile
m²
roberts
sixteen
##ich
commented
hampshire
innocent
dual
pounds
checked
regulations
afghanistan
sung
rico
liberty
assets
bigger
options
angels
relegated
tribute
wells
attending
leaf
##yan
butler
romanian
forum
monthly
lisa
patterns
gmina
##tory
madison
hurricane
rev
##ians
bristol
##ula
elite
valuable
disaster
democracy
awareness
germans
freyja
##ins
loop
absolutely
paying
populations
maine
sole
prayer
spencer
releases
doorway
bull
##ani
lover
midnight
conclusion
##sson
thirteen
lily
mediterranean
##lt
nhl
proud
sample
##hill
drummer
guinea
##ova
murphy
climb
##ston
instant
attributed
horn
ain
railways
steven
##ao
autumn
ferry
opponent
root
traveling
secured
corridor
stretched
tales
sheet
trinity
cattle
helps
indicates
manhattan
murdered
fitted
1882
gentle
grandmother
mines
shocked
vegas
produces
##light
caribbean
##ou
belong
continuous
desperate
drunk
historically
trio
waved
raf
dealing
nathan
bat
murmured
interrupted
residing
scientist
pioneer
harold
aaron
##net
delta
attempting
minority
mini
believes
chorus
tend
lots
eyed
indoor
load
shots
updated
jail
##llo
concerning
connecting
wealth
##ved
slaves
arrive
rangers
sufficient
rebuilt
##wick
cardinal
flood
muhammad
whenever
relation
runners
moral
repair
viewers
arriving
revenge
punk
assisted
bath
fairly
breathe
lists
innings
illustrated
whisper
nearest
voters
clinton
ties
ultimate
screamed
beijing
lions
andre
fictional
gathering
comfort
radar
suitable
dismissed
hms
ban
pine
wrist
atmosphere
voivodeship
bid
timber
##ned
##nan
giants
##ane
cameron
recovery
uss
identical
categories
switched
serbia
laughter
noah
ensemble
therapy
peoples
touching
##off
locally
pearl
platforms
everywhere
ballet
tables
lanka
herbert
outdoor
toured
derek
1883
spaces
contested
swept
1878
exclusive
slight
connections
##dra
winds
prisoner
collective
bangladesh
tube
publicly
wealthy
thai
##ys
isolated
select
##ric
insisted
pen
fortune
ticket
spotted
reportedly
animation
enforcement
tanks
110
decides
wider
lowest
owen
##time
nod
hitting
##hn
gregory
furthermore
magazines
fighters
solutions
##ery
pointing
requested
peru
reed
chancellor
knights
mask
worker
eldest
flames
reduction
1860
volunteers
##tis
reporting
##hl
wire
advisory
endemic
origins
settlers
pursue
knock
consumer
1876
eu
compound
creatures
mansion
sentenced
ivan
deployed
guitars
frowned
involves
mechanism
kilometers
perspective
shops
maps
terminus
duncan
alien
fist
bridges
##pers
heroes
fed
derby
swallowed
##ros
patent
sara
illness
characterized
adventures
slide
hawaii
jurisdiction
##op
organised
##side
adelaide
walks
biology
se
##ties
rogers
swing
tightly
boundaries
##rie
prepare
implementation
stolen
##sha
certified
colombia
edwards
garage
##mm
recalled
##ball
rage
harm
nigeria
breast
##ren
furniture
pupils
settle
##lus
cuba
balls
client
alaska
21st
linear
thrust
celebration
latino
genetic
terror
##cia
##ening
lightning
fee
witness
lodge
establishing
skull
##ique
earning
hood
##ei
rebellion
wang
sporting
warned
missile
devoted
activist
porch
worship
fourteen
package
1871
decorated
##shire
housed
##ock
chess
sailed
doctors
oscar
joan
treat
garcia
harbour
jeremy
##ire
traditions
dominant
jacques
##gon
##wan
relocated
1879
amendment
sized
companion
simultaneously
volleyball
spun
acre
increases
stopping
loves
belongs
affect
drafted
tossed
scout
battles
1875
filming
shoved
munich
tenure
vertical
romance
pc
##cher
argue
##ical
craft
ranging
www
opens
honest
tyler
yesterday
virtual
##let
muslims
reveal
snake
immigrants
radical
screaming
speakers
firing
saving
belonging
ease
lighting
prefecture
blame
farmer
hungry
grows
rubbed
beam
sur
subsidiary
##cha
armenian
sao
dropping
conventional
##fer
microsoft
reply
qualify
spots
1867
sweat
festivals
##ken
immigration
physician
discover
exposure
sandy
explanation
isaac
implemented
##fish
hart
initiated
connect
stakes
presents
heights
householder
pleased
tourist
regardless
slip
closest
##ction
surely
sultan
brings
riley
preparation
aboard
slammed
baptist
experiment
ongoing
interstate
organic
playoffs
##ika
1877
130
##tar
hindu
error
tours
tier
plenty
arrangements
talks
trapped
excited
sank
ho
athens
1872
denver
welfare
suburb
athletes
trick
diverse
belly
exclusively
yelled
1868
##med
conversion
##ette
1874
internationally
computers
conductor
abilities
sensitive
hello
dispute
measured
globe
rocket
prices
amsterdam
flights
tigers
inn
municipalities
emotion
references
3d
##mus
explains
airlines
manufactured
pm
archaeological
1873
interpretation
devon
comment
##ites
settlements
kissing
absolute
improvement
suite
impressed
barcelona
sullivan
jefferson
towers
jesse
julie
##tin
##lu
grandson
hi
gauge
regard
rings
interviews
trace
raymond
thumb
departments
burns
serial
bulgarian
scores
demonstrated
##ix
1866
kyle
alberta
underneath
romanized
##ward
relieved
acquisition
phrase
cliff
reveals
han
cuts
merger
custom
##dar
nee
gilbert
graduation
##nts
assessment
cafe
difficulty
demands
swung
democrat
jennifer
commons
1940s
grove
##yo
completing
focuses
sum
substitute
bearing
stretch
reception
##py
reflected
essentially
destination
pairs
##ched
survival
resource
##bach
promoting
doubles
messages
tear
##down
##fully
parade
florence
harvey
incumbent
partial
framework
900
pedro
frozen
procedure
olivia
controls
##mic
shelter
personally
temperatures
##od
brisbane
tested
sits
marble
comprehensive
oxygen
leonard
##kov
inaugural
iranian
referring
quarters
attitude
##ivity
mainstream
lined
mars
dakota
norfolk
unsuccessful
##°
explosion
helicopter
congressional
##sing
inspector
bitch
seal
departed
divine
##ters
coaching
examination
punishment
manufacturer
sink
columns
unincorporated
signals
nevada
squeezed
dylan
dining
photos
martial
manuel
eighteen
elevator
brushed
plates
ministers
ivy
congregation
##len
slept
specialized
taxes
curve
restricted
negotiations
likes
statistical
arnold
inspiration
execution
bold
intermediate
significance
margin
ruler
wheels
gothic
intellectual
dependent
listened
eligible
buses
widow
syria
earn
cincinnati
collapsed
recipient
secrets
accessible
philippine
maritime
goddess
clerk
surrender
breaks
playoff
database
##ified
##lon
ideal
beetle
aspect
soap
regulation
strings
expand
anglo
shorter
crosses
retreat
tough
coins
wallace
directions
pressing
##oon
shipping
locomotives
comparison
topics
nephew
##mes
distinction
honors
travelled
sierra
ibn
##over
fortress
sa
recognised
carved
1869
clients
##dan
intent
##mar
coaches
describing
bread
##ington
beaten
northwestern
##ona
merit
youtube
collapse
challenges
em
historians
objective
submitted
virus
attacking
drake
assume
##ere
diseases
marc
stem
leeds
##cus
##ab
farming
glasses
##lock
visits
nowhere
fellowship
relevant
carries
restaurants
experiments
101
constantly
bases
targets
shah
tenth
opponents
verse
territorial
##ira
writings
corruption
##hs
instruction
inherited
reverse
emphasis
##vic
employee
arch
keeps
rabbi
watson
payment
uh
##ala
nancy
##tre
venice
fastest
sexy
banned
adrian
properly
ruth
touchdown
dollar
boards
metre
circles
edges
favour
comments
ok
travels
liberation
scattered
firmly
##ular
holland
permitted
diesel
kenya
den
originated
##ral
demons
resumed
dragged
rider
##rus
servant
blinked
extend
torn
##ias
##sey
input
meal
everybody
cylinder
kinds
camps
##fe
bullet
logic
##wn
croatian
evolved
healthy
fool
chocolate
wise
preserve
pradesh
##ess
respective
1850
##ew
chicken
artificial
gross
corresponding
convicted
cage
caroline
dialogue
##dor
narrative
stranger
mario
br
christianity
failing
trent
commanding
buddhist
1848
maurice
focusing
yale
bike
altitude
##ering
mouse
revised
##sley
veteran
##ig
pulls
theology
crashed
campaigns
legion
##ability
drag
excellence
customer
cancelled
intensity
excuse
##lar
liga
participating
contributing
printing
##burn
variable
##rk
curious
bin
legacy
renaissance
##my
symptoms
binding
vocalist
dancer
##nie
grammar
gospel
democrats
ya
enters
sc
diplomatic
hitler
##ser
clouds
mathematical
quit
defended
oriented
##heim
fundamental
hardware
impressive
equally
convince
confederate
guilt
chuck
sliding
##ware
magnetic
narrowed
petersburg
bulgaria
otto
phd
skill
##ama
reader
hopes
pitcher
reservoir
hearts
automatically
expecting
mysterious
bennett
extensively
imagined
seeds
monitor
fix
##ative
journalism
struggling
signature
ranch
encounter
photographer
observation
protests
##pin
influences
##hr
calendar
##all
cruz
croatia
locomotive
hughes
naturally
shakespeare
basement
hook
uncredited
faded
theories
approaches
dare
phillips
filling
fury
obama
##ain
efficient
arc
deliver
min
raid
breeding
inducted
leagues
efficiency
axis
montana
eagles
##ked
supplied
instructions
karen
picking
indicating
trap
anchor
practically
christians
tomb
vary
occasional
electronics
lords
readers
newcastle
faint
innovation
collect
situations
engagement
160
claude
mixture
##feld
peer
tissue
logo
lean
##ration
°f
floors
##ven
architects
reducing
##our
##ments
rope
1859
ottawa
##har
samples
banking
declaration
proteins
resignation
francois
saudi
advocate
exhibited
armor
twins
divorce
##ras
abraham
reviewed
jo
temporarily
matrix
physically
pulse
curled
##ena
difficulties
bengal
usage
##ban
annie
riders
certificate
##pi
holes
warsaw
distinctive
jessica
##mon
mutual
1857
customs
circular
eugene
removal
loaded
mere
vulnerable
depicted
generations
dame
heir
enormous
lightly
climbing
pitched
lessons
pilots
nepal
ram
google
preparing
brad
louise
renowned
##₂
liam
##ably
plaza
shaw
sophie
brilliant
bills
##bar
##nik
fucking
mainland
server
pleasant
seized
veterans
jerked
fail
beta
brush
radiation
stored
warmth
southeastern
nate
sin
raced
berkeley
joke
athlete
designation
trunk
##low
roland
qualification
archives
heels
artwork
receives
judicial
reserves
##bed
woke
installation
abu
floating
fake
lesser
excitement
interface
concentrated
addressed
characteristic
amanda
saxophone
monk
auto
##bus
releasing
egg
dies
interaction
defender
ce
outbreak
glory
loving
##bert
sequel
consciousness
http
awake
ski
enrolled
##ress
handling
rookie
brow
somebody
biography
warfare
amounts
contracts
presentation
fabric
dissolved
challenged
meter
psychological
lt
elevated
rally
accurate
##tha
hospitals
undergraduate
specialist
venezuela
exhibit
shed
nursing
protestant
fluid
structural
footage
jared
consistent
prey
##ska
succession
reflect
exile
lebanon
wiped
suspect
shanghai
resting
integration
preservation
marvel
variant
pirates
sheep
rounded
capita
sailing
colonies
manuscript
deemed
variations
clarke
functional
emerging
boxing
relaxed
curse
azerbaijan
heavyweight
nickname
editorial
rang
grid
tightened
earthquake
flashed
miguel
rushing
##ches
improvements
boxes
brooks
180
consumption
molecular
felix
societies
repeatedly
variation
aids
civic
graphics
professionals
realm
autonomous
receiver
delayed
workshop
militia
chairs
trump
canyon
##point
harsh
extending
lovely
happiness
##jan
stake
eyebrows
embassy
wellington
hannah
##ella
sony
corners
bishops
swear
cloth
contents
xi
namely
commenced
1854
stanford
nashville
courage
graphic
commitment
garrison
##bin
hamlet
clearing
rebels
attraction
literacy
cooking
ruins
temples
jenny
humanity
celebrate
hasn
freight
sixty
rebel
bastard
##art
newton
##ada
deer
##ges
##ching
smiles
delaware
singers
##ets
approaching
assists
flame
##ph
boulevard
barrel
planted
##ome
pursuit
##sia
consequences
posts
shallow
invitation
rode
depot
ernest
kane
rod
concepts
preston
topic
chambers
striking
blast
arrives
descendants
montgomery
ranges
worlds
##lay
##ari
span
chaos
praise
##ag
fewer
1855
sanctuary
mud
fbi
##ions
programmes
maintaining
unity
harper
bore
handsome
closure
tournaments
thunder
nebraska
linda
facade
puts
satisfied
argentine
dale
cork
dome
panama
##yl
1858
tasks
experts
##ates
feeding
equation
##las
##ida
##tu
engage
bryan
##ax
um
quartet
melody
disbanded
sheffield
blocked
gasped
delay
kisses
maggie
connects
##non
sts
poured
creator
publishers
##we
guided
ellis
extinct
hug
gaining
##ord
complicated
##bility
poll
clenched
investigate
##use
thereby
quantum
spine
cdp
humor
kills
administered
semifinals
##du
encountered
ignore
##bu
commentary
##maker
bother
roosevelt
140
plains
halfway
flowing
cultures
crack
imprisoned
neighboring
airline
##ses
##view
##mate
##ec
gather
wolves
marathon
transformed
##ill
cruise
organisations
carol
punch
exhibitions
numbered
alarm
ratings
daddy
silently
##stein
queens
colours
impression
guidance
liu
tactical
##rat
marshal
della
arrow
##ings
rested
feared
tender
owns
bitter
advisor
escort
##ides
spare
farms
grants
##ene
dragons
encourage
colleagues
cameras
##und
sucked
pile
spirits
prague
statements
suspension
landmark
fence
torture
recreation
bags
permanently
survivors
pond
spy
predecessor
bombing
coup
##og
protecting
transformation
glow
##lands
##book
dug
priests
andrea
feat
barn
jumping
##chen
##ologist
##con
casualties
stern
auckland
pipe
serie
revealing
ba
##bel
trevor
mercy
spectrum
yang
consist
governing
collaborated
possessed
epic
comprises
blew
shane
##ack
lopez
honored
magical
sacrifice
judgment
perceived
hammer
mtv
baronet
tune
das
missionary
sheets
350
neutral
oral
threatening
attractive
shade
aims
seminary
##master
estates
1856
michel
wounds
refugees
manufacturers
##nic
mercury
syndrome
porter
##iya
##din
hamburg
identification
upstairs
purse
widened
pause
cared
breathed
affiliate
santiago
prevented
celtic
fisher
125
recruited
byzantine
reconstruction
farther
##mp
diet
sake
au
spite
sensation
##ert
blank
separation
105
##hon
vladimir
armies
anime
##lie
accommodate
orbit
cult
sofia
archive
##ify
##box
founders
sustained
disorder
honours
northeastern
mia
crops
violet
threats
blanket
fires
canton
followers
southwestern
prototype
voyage
assignment
altered
moderate
protocol
pistol
##eo
questioned
brass
lifting
1852
math
authored
##ual
doug
dimensional
dynamic
##san
1851
pronounced
grateful
quest
uncomfortable
boom
presidency
stevens
relating
politicians
chen
barrier
quinn
diana
mosque
tribal
cheese
palmer
portions
sometime
chester
treasure
wu
bend
download
millions
reforms
registration
##osa
consequently
monitoring
ate
preliminary
brandon
invented
ps
eaten
exterior
intervention
ports
documented
log
displays
lecture
sally
favourite
##itz
vermont
lo
invisible
isle
breed
##ator
journalists
relay
speaks
backward
explore
midfielder
actively
stefan
procedures
cannon
blond
kenneth
centered
servants
chains
libraries
malcolm
essex
henri
slavery
##hal
facts
fairy
coached
cassie
cats
washed
cop
##fi
announcement
item
2000s
vinyl
activated
marco
frontier
growled
curriculum
##das
loyal
accomplished
leslie
ritual
kenny
##00
vii
napoleon
hollow
hybrid
jungle
stationed
friedrich
counted
##ulated
platinum
theatrical
seated
col
rubber
glen
1840
diversity
healing
extends
id
provisions
administrator
columbus
##oe
tributary
te
assured
org
##uous
prestigious
examined
lectures
grammy
ronald
associations
bailey
allan
essays
flute
believing
consultant
proceedings
travelling
1853
kit
kerala
yugoslavia
buddy
methodist
##ith
burial
centres
batman
##nda
discontinued
bo
dock
stockholm
lungs
severely
##nk
citing
manga
##ugh
steal
mumbai
iraqi
robot
celebrity
bride
broadcasts
abolished
pot
joel
overhead
franz
packed
reconnaissance
johann
acknowledged
introduce
handled
doctorate
developments
drinks
alley
palestine
##nis
##aki
proceeded
recover
bradley
grain
patch
afford
infection
nationalist
legendary
##ath
interchange
virtually
gen
gravity
exploration
amber
vital
wishes
powell
doctrine
elbow
screenplay
##bird
contribute
indonesian
pet
creates
##com
enzyme
kylie
discipline
drops
manila
hunger
##ien
layers
suffer
fever
bits
monica
keyboard
manages
##hood
searched
appeals
##bad
testament
grande
reid
##war
beliefs
congo
##ification
##dia
si
requiring
##via
casey
1849
regret
streak
rape
depends
syrian
sprint
pound
tourists
upcoming
pub
##xi
tense
##els
practiced
echo
nationwide
guild
motorcycle
liz
##zar
chiefs
desired
elena
bye
precious
absorbed
relatives
booth
pianist
##mal
citizenship
exhausted
wilhelm
##ceae
##hed
noting
quarterback
urge
hectares
##gue
ace
holly
##tal
blonde
davies
parked
sustainable
stepping
twentieth
airfield
galaxy
nest
chip
##nell
tan
shaft
paulo
requirement
##zy
paradise
tobacco
trans
renewed
vietnamese
##cker
##ju
suggesting
catching
holmes
enjoying
md
trips
colt
holder
butterfly
nerve
reformed
cherry
bowling
trailer
carriage
goodbye
appreciate
toy
joshua
interactive
enabled
involve
##kan
collar
determination
bunch
facebook
recall
shorts
superintendent
episcopal
frustration
giovanni
nineteenth
laser
privately
array
circulation
##ovic
armstrong
deals
painful
permit
discrimination
##wi
aires
retiring
cottage
ni
##sta
horizon
ellen
jamaica
ripped
fernando
chapters
playstation
patron
lecturer
navigation
behaviour
genes
georgian
export
solomon
rivals
swift
seventeen
rodriguez
princeton
independently
sox
1847
arguing
entity
casting
hank
criteria
oakland
geographic
milwaukee
reflection
expanding
conquest
dubbed
##tv
halt
brave
brunswick
doi
arched
curtis
divorced
predominantly
somerset
streams
ugly
zoo
horrible
curved
buenos
fierce
dictionary
vector
theological
unions
handful
stability
chan
punjab
segments
##lly
altar
ignoring
gesture
monsters
pastor
##stone
thighs
unexpected
operators
abruptly
coin
compiled
associates
improving
migration
pin
##ose
compact
collegiate
reserved
##urs
quarterfinals
roster
restore
assembled
hurry
oval
##cies
1846
flags
martha
##del
victories
sharply
##rated
argues
deadly
neo
drawings
symbols
performer
##iel
griffin
restrictions
editing
andrews
java
journals
arabia
compositions
dee
pierce
removing
hindi
casino
runway
civilians
minds
nasa
hotels
##zation
refuge
rent
retain
potentially
conferences
suburban
conducting
##tto
##tions
##tle
descended
massacre
##cal
ammunition
terrain
fork
souls
counts
chelsea
durham
drives
cab
##bank
perth
realizing
palestinian
finn
simpson
##dal
betty
##ule
moreover
particles
cardinals
tent
evaluation
extraordinary
##oid
inscription
##works
wednesday
chloe
maintains
panels
ashley
trucks
##nation
cluster
sunlight
strikes
zhang
##wing
dialect
canon
##ap
tucked
##ws
collecting
##mas
##can
##sville
maker
quoted
evan
franco
aria
buying
cleaning
eva
closet
provision
apollo
clinic
rat
##ez
necessarily
ac
##gle
##ising
venues
flipped
cent
spreading
trustees
checking
authorized
##sco
disappointed
##ado
notion
duration
trumpet
hesitated
topped
brussels
rolls
theoretical
hint
define
aggressive
repeat
wash
peaceful
optical
width
allegedly
mcdonald
strict
copyright
##illa
investors
mar
jam
witnesses
sounding
miranda
michelle
privacy
hugo
harmony
##pp
valid
lynn
glared
nina
102
headquartered
diving
boarding
gibson
##ncy
albanian
marsh
routine
dealt
enhanced
er
intelligent
substance
targeted
enlisted
discovers
spinning
observations
pissed
smoking
rebecca
capitol
visa
varied
costume
seemingly
indies
compensation
surgeon
thursday
arsenal
westminster
suburbs
rid
anglican
##ridge
knots
foods
alumni
lighter
fraser
whoever
portal
scandal
##ray
gavin
advised
instructor
flooding
terrorist
##ale
teenage
interim
senses
duck
teen
thesis
abby
eager
overcome
##ile
newport
glenn
rises
shame
##cc
prompted
priority
forgot
bomber
nicolas
protective
360
cartoon
katherine
breeze
lonely
trusted
henderson
richardson
relax
banner
candy
palms
remarkable
##rio
legends
cricketer
essay
ordained
edmund
rifles
trigger
##uri
##away
sail
alert
1830
audiences
penn
sussex
siblings
pursued
indianapolis
resist
rosa
consequence
succeed
avoided
1845
##ulation
inland
##tie
##nna
counsel
profession
chronicle
hurried
##una
eyebrow
eventual
bleeding
innovative
cure
##dom
committees
accounting
con
scope
hardy
heather
tenor
gut
herald
codes
tore
scales
wagon
##oo
luxury
tin
prefer
fountain
triangle
bonds
darling
convoy
dried
traced
beings
troy
accidentally
slam
findings
smelled
joey
lawyers
outcome
steep
bosnia
configuration
shifting
toll
brook
performers
lobby
philosophical
construct
shrine
aggregate
boot
cox
phenomenon
savage
insane
solely
reynolds
lifestyle
##ima
nationally
holdings
consideration
enable
edgar
mo
mama
##tein
fights
relegation
chances
atomic
hub
conjunction
awkward
reactions
currency
finale
kumar
underwent
steering
elaborate
gifts
comprising
melissa
veins
reasonable
sunshine
chi
solve
trails
inhabited
elimination
ethics
huh
ana
molly
consent
apartments
layout
marines
##ces
hunters
bulk
##oma
hometown
##wall
##mont
cracked
reads
neighbouring
withdrawn
admission
wingspan
damned
anthology
lancashire
brands
batting
forgive
cuban
awful
##lyn
104
dimensions
imagination
##ade
dante
##ship
tracking
desperately
goalkeeper
##yne
groaned
workshops
confident
burton
gerald
milton
circus
uncertain
slope
copenhagen
sophia
fog
philosopher
portraits
accent
cycling
varying
gripped
larvae
garrett
specified
scotia
mature
luther
kurt
rap
##kes
aerial
750
ferdinand
heated
es
transported
##shan
safely
nonetheless
##orn
##gal
motors
demanding
##sburg
startled
##brook
ally
generate
caps
ghana
stained
demo
mentions
beds
ap
afterward
diary
##bling
utility
##iro
richards
1837
conspiracy
conscious
shining
footsteps
observer
cyprus
urged
loyalty
developer
probability
olive
upgraded
gym
miracle
insects
graves
1844
ourselves
hydrogen
amazon
katie
tickets
poets
##pm
planes
##pan
prevention
witnessed
dense
jin
randy
tang
warehouse
monroe
bang
archived
elderly
investigations
alec
granite
mineral
conflicts
controlling
aboriginal
carlo
##zu
mechanics
stan
stark
rhode
skirt
est
##berry
bombs
respected
##horn
imposed
limestone
deny
nominee
memphis
grabbing
disabled
##als
amusement
aa
frankfurt
corn
referendum
varies
slowed
disk
firms
unconscious
incredible
clue
sue
##zhou
twist
##cio
joins
idaho
chad
developers
computing
destroyer
103
mortal
tucker
kingston
choices
yu
carson
1800
os
whitney
geneva
pretend
dimension
staged
plateau
maya
##une
freestyle
##bc
rovers
hiv
##ids
tristan
classroom
prospect
##hus
honestly
diploma
lied
thermal
auxiliary
feast
unlikely
iata
##tel
morocco
pounding
treasury
lithuania
considerably
1841
dish
1812
geological
matching
stumbled
destroying
marched
brien
advances
cake
nicole
belle
settling
measuring
directing
##mie
tuesday
bassist
capabilities
stunned
fraud
torpedo
##list
##phone
anton
wisdom
surveillance
ruined
##ulate
lawsuit
healthcare
theorem
halls
trend
aka
horizontal
dozens
acquire
lasting
swim
hawk
gorgeous
fees
vicinity
decrease
adoption
tactics
##ography
pakistani
##ole
draws
##hall
willie
burke
heath
algorithm
integral
powder
elliott
brigadier
jackie
tate
varieties
darker
##cho
lately
cigarette
specimens
adds
##ree
##ensis
##inger
exploded
finalist
cia
murders
wilderness
arguments
nicknamed
acceptance
onwards
manufacture
robertson
jets
tampa
enterprises
blog
loudly
composers
nominations
1838
ai
malta
inquiry
automobile
hosting
viii
rays
tilted
grief
museums
strategies
furious
euro
equality
cohen
poison
surrey
wireless
governed
ridiculous
moses
##esh
##room
vanished
##ito
barnes
attract
morrison
istanbul
##iness
absent
rotation
petition
janet
##logical
satisfaction
custody
deliberately
observatory
comedian
surfaces
pinyin
novelist
strictly
canterbury
oslo
monks
embrace
ibm
jealous
photograph
continent
dorothy
marina
doc
excess
holden
allegations
explaining
stack
avoiding
lance
storyline
majesty
poorly
spike
dos
bradford
raven
travis
classics
proven
voltage
pillow
fists
butt
1842
interpreted
##car
1839
gage
telegraph
lens
promising
expelled
casual
collector
zones
##min
silly
nintendo
##kh
##bra
downstairs
chef
suspicious
afl
flies
vacant
uganda
pregnancy
condemned
lutheran
estimates
cheap
decree
saxon
proximity
stripped
idiot
deposits
contrary
presenter
magnus
glacier
im
offense
edwin
##ori
upright
##long
bolt
##ois
toss
geographical
##izes
environments
delicate
marking
abstract
xavier
nails
windsor
plantation
occurring
equity
saskatchewan
fears
drifted
sequences
vegetation
revolt
##stic
1843
sooner
fusion
opposing
nato
skating
1836
secretly
ruin
lease
##oc
edit
##nne
flora
anxiety
ruby
##ological
##mia
tel
bout
taxi
emmy
frost
rainbow
compounds
foundations
rainfall
assassination
nightmare
dominican
##win
achievements
deserve
orlando
intact
armenia
##nte
calgary
valentine
106
marion
proclaimed
theodore
bells
courtyard
thigh
gonzalez
console
troop
minimal
monte
everyday
##ence
##if
supporter
terrorism
buck
openly
presbyterian
activists
carpet
##iers
rubbing
uprising
##yi
cute
conceived
legally
##cht
millennium
cello
velocity
ji
rescued
cardiff
1835
rex
concentrate
senators
beard
rendered
glowing
battalions
scouts
competitors
sculptor
catalogue
arctic
ion
raja
bicycle
wow
glancing
lawn
##woman
gentleman
lighthouse
publish
predicted
calculated
##val
variants
##gne
strain
##ui
winston
deceased
##nus
touchdowns
brady
caleb
sinking
echoed
crush
hon
blessed
protagonist
hayes
endangered
magnitude
editors
##tine
estimate
responsibilities
##mel
backup
laying
consumed
sealed
zurich
lovers
frustrated
##eau
ahmed
kicking
mit
treasurer
1832
biblical
refuse
terrified
pump
agrees
genuine
imprisonment
refuses
plymouth
##hen
lou
##nen
tara
trembling
antarctic
ton
learns
##tas
crap
crucial
faction
atop
##borough
wrap
lancaster
odds
hopkins
erik
lyon
##eon
bros
##ode
snap
locality
tips
empress
crowned
cal
acclaimed
chuckled
##ory
clara
sends
mild
towel
##fl
##day
##а
wishing
assuming
interviewed
##bal
##die
interactions
eden
cups
helena
##lf
indie
beck
##fire
batteries
filipino
wizard
parted
##lam
traces
##born
rows
idol
albany
delegates
##ees
##sar
discussions
##ex
notre
instructed
belgrade
highways
suggestion
lauren
possess
orientation
alexandria
abdul
beats
salary
reunion
ludwig
alright
wagner
intimate
pockets
slovenia
hugged
brighton
merchants
cruel
stole
trek
slopes
repairs
enrollment
politically
underlying
promotional
counting
boeing
##bb
isabella
naming
##и
keen
bacteria
listing
separately
belfast
ussr
450
lithuanian
anybody
ribs
sphere
martinez
cock
embarrassed
proposals
fragments
nationals
##fs
##wski
premises
fin
1500
alpine
matched
freely
bounded
jace
sleeve
##af
gaming
pier
populated
evident
##like
frances
flooded
##dle
frightened
pour
trainer
framed
visitor
challenging
pig
wickets
##fold
infected
email
##pes
arose
##aw
reward
ecuador
oblast
vale
ch
shuttle
##usa
bach
rankings
forbidden
cornwall
accordance
salem
consumers
bruno
fantastic
toes
machinery
resolved
julius
remembering
propaganda
iceland
bombardment
tide
contacts
wives
##rah
concerto
macdonald
albania
implement
daisy
tapped
sudan
helmet
angela
mistress
##lic
crop
sunk
finest
##craft
hostile
##ute
##tsu
boxer
fr
paths
adjusted
habit
ballot
supervision
soprano
##zen
bullets
wicked
sunset
regiments
disappear
lamp
performs
app
##gia
##oa
rabbit
digging
incidents
entries
##cion
dishes
##oi
introducing
##ati
##fied
freshman
slot
jill
tackles
baroque
backs
##iest
lone
sponsor
destiny
altogether
convert
##aro
consensus
shapes
demonstration
basically
feminist
auction
artifacts
##bing
strongest
twitter
halifax
2019
allmusic
mighty
smallest
precise
alexandra
viola
##los
##ille
manuscripts
##illo
dancers
ari
managers
monuments
blades
barracks
springfield
maiden
consolidated
electron
##end
berry
airing
wheat
nobel
inclusion
blair
payments
geography
bee
cc
eleanor
react
##hurst
afc
manitoba
##yu
su
lineup
fitness
recreational
investments
airborne
disappointment
##dis
edmonton
viewing
##row
renovation
##cast
infant
bankruptcy
roses
aftermath
pavilion
##yer
carpenter
withdrawal
ladder
##hy
discussing
popped
reliable
agreements
rochester
##abad
curves
bombers
220
rao
reverend
decreased
choosing
107
stiff
consulting
naples
crawford
tracy
ka
ribbon
cops
##lee
crushed
deciding
unified
teenager
accepting
flagship
explorer
poles
sanchez
inspection
revived
skilled
induced
exchanged
flee
locals
tragedy
swallow
loading
hanna
demonstrate
##ela
salvador
flown
contestants
civilization
##ines
wanna
rhodes
fletcher
hector
knocking
considers
##ough
nash
mechanisms
sensed
mentally
walt
unclear
##eus
renovated
madame
##cks
crews
governmental
##hin
undertaken
monkey
##ben
##ato
fatal
armored
copa
caves
governance
grasp
perception
certification
froze
damp
tugged
wyoming
##rg
##ero
newman
##lor
nerves
curiosity
graph
115
##ami
withdraw
tunnels
dull
meredith
moss
exhibits
neighbors
communicate
accuracy
explored
raiders
republicans
secular
kat
superman
penny
criticised
##tch
freed
update
conviction
wade
ham
likewise
delegation
gotta
doll
promises
technological
myth
nationality
resolve
convent
##mark
sharon
dig
sip
coordinator
entrepreneur
fold
##dine
capability
councillor
synonym
blown
swan
cursed
1815
jonas
haired
sofa
canvas
keeper
rivalry
##hart
rapper
speedway
swords
postal
maxwell
estonia
potter
recurring
##nn
##ave
errors
##oni
cognitive
1834
##²
claws
nadu
roberto
bce
wrestler
ellie
##ations
infinite
ink
##tia
presumably
finite
staircase
108
noel
patricia
nacional
##cation
chill
eternal
tu
preventing
prussia
fossil
limbs
##logist
ernst
frog
perez
rene
##ace
pizza
prussian
##ios
##vy
molecules
regulatory
answering
opinions
sworn
lengths
supposedly
hypothesis
upward
habitats
seating
ancestors
drank
yield
hd
synthesis
researcher
modest
##var
mothers
peered
voluntary
homeland
##the
acclaim
##igan
static
valve
luxembourg
alto
carroll
fe
receptor
norton
ambulance
##tian
johnston
catholics
depicting
jointly
elephant
gloria
mentor
badge
ahmad
distinguish
remarked
councils
precisely
allison
advancing
detection
crowded
##10
cooperative
ankle
mercedes
dagger
surrendered
pollution
commit
subway
jeffrey
lesson
sculptures
provider
##fication
membrane
timothy
rectangular
fiscal
heating
teammate
basket
particle
anonymous
deployment
##ple
missiles
courthouse
proportion
shoe
sec
##ller
complaints
forbes
blacks
abandon
remind
sizes
overwhelming
autobiography
natalie
##awa
risks
contestant
countryside
babies
scorer
invaded
enclosed
proceed
hurling
disorders
##cu
reflecting
continuously
cruiser
graduates
freeway
investigated
ore
deserved
maid
blocking
phillip
jorge
shakes
dove
mann
variables
lacked
burden
accompanying
que
consistently
organizing
provisional
complained
endless
##rm
tubes
juice
georges
krishna
mick
labels
thriller
##uch
laps
arcade
sage
snail
##table
shannon
fi
laurence
seoul
vacation
presenting
hire
churchill
surprisingly
prohibited
savannah
technically
##oli
170
##lessly
testimony
suited
speeds
toys
romans
mlb
flowering
measurement
talented
kay
settings
charleston
expectations
shattered
achieving
triumph
ceremonies
portsmouth
lanes
mandatory
loser
stretching
cologne
realizes
seventy
cornell
careers
webb
##ulating
americas
budapest
ava
suspicion
##ison
yo
conrad
##hai
sterling
jessie
rector
##az
1831
transform
organize
loans
christine
volcanic
warrant
slender
summers
subfamily
newer
danced
dynamics
rhine
proceeds
heinrich
gastropod
commands
sings
facilitate
easter
ra
positioned
responses
expense
fruits
yanked
imported
25th
velvet
vic
primitive
tribune
baldwin
neighbourhood
donna
rip
hay
pr
##uro
1814
espn
welcomed
##aria
qualifier
glare
highland
timing
##cted
shells
eased
geometry
louder
exciting
slovakia
##sion
##iz
##lot
savings
prairie
##ques
marching
rafael
tonnes
##lled
curtain
preceding
shy
heal
greene
worthy
##pot
detachment
bury
sherman
##eck
reinforced
seeks
bottles
contracted
duchess
outfit
walsh
##sc
mickey
##ase
geoffrey
archer
squeeze
dawson
eliminate
invention
##enberg
neal
##eth
stance
dealer
coral
maple
retire
polo
simplified
##ht
1833
hid
watts
backwards
jules
##oke
genesis
mt
frames
rebounds
burma
woodland
moist
santos
whispers
drained
subspecies
##aa
streaming
ulster
burnt
correspondence
maternal
gerard
denis
stealing
##load
genius
duchy
##oria
inaugurated
momentum
suits
placement
sovereign
clause
thames
##hara
confederation
reservation
sketch
yankees
lets
rotten
charm
hal
verses
ultra
commercially
dot
salon
citation
adopt
winnipeg
mist
allocated
cairo
##boy
jenkins
interference
objectives
##wind
1820
portfolio
armoured
sectors
##eh
initiatives
##world
integrity
exercises
robe
tap
ab
gazed
##tones
distracted
rulers
111
favorable
jerome
tended
cart
factories
##eri
diplomat
valued
gravel
charitable
##try
calvin
exploring
chang
shepherd
terrace
pdf
pupil
##ural
reflects
ups
##rch
governors
shelf
depths
##nberg
trailed
crest
tackle
##nian
##ats
hatred
##kai
clare
makers
ethiopia
longtime
detected
embedded
lacking
slapped
rely
thomson
anticipation
iso
morton
successive
agnes
screenwriter
straightened
philippe
playwright
haunted
licence
iris
intentions
sutton
112
logical
correctly
##weight
branded
licked
tipped
silva
ricky
narrator
requests
##ents
greeted
supernatural
cow
##wald
lung
refusing
employer
strait
gaelic
liner
##piece
zoe
sabha
##mba
driveway
harvest
prints
bates
reluctantly
threshold
algebra
ira
wherever
coupled
240
assumption
picks
##air
designers
raids
gentlemen
##ean
roller
blowing
leipzig
locks
screw
dressing
strand
##lings
scar
dwarf
depicts
##nu
nods
##mine
differ
boris
##eur
yuan
flip
##gie
mob
invested
questioning
applying
##ture
shout
##sel
gameplay
blamed
illustrations
bothered
weakness
rehabilitation
##of
##zes
envelope
rumors
miners
leicester
subtle
kerry
##ico
ferguson
##fu
premiership
ne
##cat
bengali
prof
catches
remnants
dana
##rily
shouting
presidents
baltic
ought
ghosts
dances
sailors
shirley
fancy
dominic
##bie
madonna
##rick
bark
buttons
gymnasium
ashes
liver
toby
oath
providence
doyle
evangelical
nixon
cement
carnegie
embarked
hatch
surroundings
guarantee
needing
pirate
essence
##bee
filter
crane
hammond
projected
immune
percy
twelfth
##ult
regent
doctoral
damon
mikhail
##ichi
lu
critically
elect
realised
abortion
acute
screening
mythology
steadily
##fc
frown
nottingham
kirk
wa
minneapolis
##rra
module
algeria
mc
nautical
encounters
surprising
statues
availability
shirts
pie
alma
brows
munster
mack
soup
crater
tornado
sanskrit
cedar
explosive
bordered
dixon
planets
stamp
exam
happily
##bble
carriers
kidnapped
##vis
accommodation
emigrated
##met
knockout
correspondent
violation
profits
peaks
lang
specimen
agenda
ancestry
pottery
spelling
equations
obtaining
ki
linking
1825
debris
asylum
##20
buddhism
teddy
##ants
gazette
##nger
##sse
dental
eligibility
utc
fathers
averaged
zimbabwe
francesco
coloured
hissed
translator
lynch
mandate
humanities
mackenzie
uniforms
lin
##iana
##gio
asset
mhz
fitting
samantha
genera
wei
rim
beloved
shark
riot
entities
expressions
indo
carmen
slipping
owing
abbot
neighbor
sidney
##av
rats
recommendations
encouraging
squadrons
anticipated
commanders
conquered
##oto
donations
diagnosed
##mond
divide
##iva
guessed
decoration
vernon
auditorium
revelation
conversations
##kers
##power
herzegovina
dash
alike
protested
lateral
herman
accredited
mg
##gent
freeman
mel
fiji
crow
crimson
##rine
livestock
##pped
humanitarian
bored
oz
whip
##lene
##ali
legitimate
alter
grinning
spelled
anxious
oriental
wesley
##nin
##hole
carnival
controller
detect
##ssa
bowed
educator
kosovo
macedonia
##sin
occupy
mastering
stephanie
janeiro
para
unaware
nurses
noon
135
cam
hopefully
ranger
combine
sociology
polar
rica
##eer
neill
##sman
holocaust
##ip
doubled
lust
1828
109
decent
cooling
unveiled
##card
1829
nsw
homer
chapman
meyer
##gin
dive
mae
reagan
expertise
##gled
darwin
brooke
sided
prosecution
investigating
comprised
petroleum
genres
reluctant
differently
trilogy
johns
vegetables
corpse
highlighted
lounge
pension
unsuccessfully
elegant
aided
ivory
beatles
amelia
cain
dubai
sunny
immigrant
babe
click
##nder
underwater
pepper
combining
mumbled
atlas
horns
accessed
ballad
physicians
homeless
gestured
rpm
freak
louisville
corporations
patriots
prizes
rational
warn
modes
decorative
overnight
din
troubled
phantom
##ort
monarch
sheer
##dorf
generals
guidelines
organs
addresses
##zon
enhance
curling
parishes
cord
##kie
linux
caesar
deutsche
bavaria
##bia
coleman
cyclone
##eria
bacon
petty
##yama
##old
hampton
diagnosis
1824
throws
complexity
rita
disputed
##₃
pablo
##sch
marketed
trafficking
##ulus
examine
plague
formats
##oh
vault
faithful
##bourne
webster
##ox
highlights
##ient
##ann
phones
vacuum
sandwich
modeling
##gated
bolivia
clergy
qualities
isabel
##nas
##ars
wears
screams
reunited
annoyed
bra
##ancy
##rate
differential
transmitter
tattoo
container
poker
##och
excessive
resides
cowboys
##tum
augustus
trash
providers
statute
retreated
balcony
reversed
void
storey
preceded
masses
leap
laughs
neighborhoods
wards
schemes
falcon
santo
battlefield
pad
ronnie
thread
lesbian
venus
##dian
beg
sandstone
daylight
punched
gwen
analog
stroked
wwe
acceptable
measurements
dec
toxic
##kel
adequate
surgical
economist
parameters
varsity
##sberg
quantity
ella
##chy
##rton
countess
generating
precision
diamonds
expressway
ga
##ı
1821
uruguay
talents
galleries
expenses
scanned
colleague
outlets
ryder
lucien
##ila
paramount
##bon
syracuse
dim
fangs
gown
sweep
##sie
toyota
missionaries
websites
##nsis
sentences
adviser
val
trademark
spells
##plane
patience
starter
slim
##borg
toe
incredibly
shoots
elliot
nobility
##wyn
cowboy
endorsed
gardner
tendency
persuaded
organisms
emissions
kazakhstan
amused
boring
chips
themed
##hand
llc
constantinople
chasing
systematic
guatemala
borrowed
erin
carey
##hard
highlands
struggles
1810
##ifying
##ced
wong
exceptions
develops
enlarged
kindergarten
castro
##ern
##rina
leigh
zombie
juvenile
##most
consul
##nar
sailor
hyde
clarence
intensive
pinned
nasty
useless
jung
clayton
stuffed
exceptional
ix
apostolic
230
transactions
##dge
exempt
swinging
cove
religions
##ash
shields
dairy
bypass
190
pursuing
bug
joyce
bombay
chassis
southampton
chat
interact
redesignated
##pen
nascar
pray
salmon
rigid
regained
malaysian
grim
publicity
constituted
capturing
toilet
delegate
purely
tray
drift
loosely
striker
weakened
trinidad
mitch
itv
defines
transmitted
ming
scarlet
nodding
fitzgerald
fu
narrowly
sp
tooth
standings
virtue
##₁
##wara
##cting
chateau
gloves
lid
##nel
hurting
conservatory
##pel
sinclair
reopened
sympathy
nigerian
strode
advocated
optional
chronic
discharge
##rc
suck
compatible
laurel
stella
shi
fails
wage
dodge
128
informal
sorts
levi
buddha
villagers
##aka
chronicles
heavier
summoned
gateway
3000
eleventh
jewelry
translations
accordingly
seas
##ency
fiber
pyramid
cubic
dragging
##ista
caring
##ops
android
contacted
lunar
##dt
kai
lisbon
patted
1826
sacramento
theft
madagascar
subtropical
disputes
ta
holidays
piper
willow
mare
cane
itunes
newfoundland
benny
companions
dong
raj
observe
roar
charming
plaque
tibetan
fossils
enacted
manning
bubble
tina
tanzania
##eda
##hir
funk
swamp
deputies
cloak
ufc
scenario
par
scratch
metals
anthem
guru
engaging
specially
##boat
dialects
nineteen
cecil
duet
disability
messenger
unofficial
##lies
defunct
eds
moonlight
drainage
surname
puzzle
honda
switching
conservatives
mammals
knox
broadcaster
sidewalk
cope
##ried
benson
princes
peterson
##sal
bedford
sharks
eli
wreck
alberto
gasp
archaeology
lgbt
teaches
securities
madness
compromise
waving
coordination
davidson
visions
leased
possibilities
eighty
jun
fernandez
enthusiasm
assassin
sponsorship
reviewer
kingdoms
estonian
laboratories
##fy
##nal
applies
verb
celebrations
##zzo
rowing
lightweight
sadness
submit
mvp
balanced
dude
##vas
explicitly
metric
magnificent
mound
brett
mohammad
mistakes
irregular
##hing
##ass
sanders
betrayed
shipped
surge
##enburg
reporters
termed
georg
pity
verbal
bulls
abbreviated
enabling
appealed
##are
##atic
sicily
sting
heel
sweetheart
bart
spacecraft
brutal
monarchy
##tter
aberdeen
cameo
diane
##ub
survivor
clyde
##aries
complaint
##makers
clarinet
delicious
chilean
karnataka
coordinates
1818
panties
##rst
pretending
ar
dramatically
kiev
bella
tends
distances
113
catalog
launching
instances
telecommunications
portable
lindsay
vatican
##eim
angles
aliens
marker
stint
screens
bolton
##rne
judy
wool
benedict
plasma
europa
spark
imaging
filmmaker
swiftly
##een
contributor
##nor
opted
stamps
apologize
financing
butter
gideon
sophisticated
alignment
avery
chemicals
yearly
speculation
prominence
professionally
##ils
immortal
institutional
inception
wrists
identifying
tribunal
derives
gains
##wo
papal
preference
linguistic
vince
operative
brewery
##ont
unemployment
boyd
##ured
##outs
albeit
prophet
1813
bi
##rr
##face
##rad
quarterly
asteroid
cleaned
radius
temper
##llen
telugu
jerk
viscount
menu
##ote
glimpse
##aya
yacht
hawaiian
baden
##rl
laptop
readily
##gu
monetary
offshore
scots
watches
##yang
##arian
upgrade
needle
xbox
lea
encyclopedia
flank
fingertips
##pus
delight
teachings
confirm
roth
beaches
midway
winters
##iah
teasing
daytime
beverly
gambling
bonnie
##backs
regulated
clement
hermann
tricks
knot
##shing
##uring
##vre
detached
ecological
owed
specialty
byron
inventor
bats
stays
screened
unesco
midland
trim
affection
##ander
##rry
jess
thoroughly
feedback
##uma
chennai
strained
heartbeat
wrapping
overtime
pleaded
##sworth
mon
leisure
oclc
##tate
##ele
feathers
angelo
thirds
nuts
surveys
clever
gill
commentator
##dos
darren
rides
gibraltar
##nc
##mu
dissolution
dedication
shin
meals
saddle
elvis
reds
chaired
taller
appreciation
functioning
niece
favored
advocacy
robbie
criminals
suffolk
yugoslav
passport
constable
congressman
hastings
vera
##rov
consecrated
sparks
ecclesiastical
confined
##ovich
muller
floyd
nora
1822
paved
1827
cumberland
ned
saga
spiral
##flow
appreciated
yi
collaborative
treating
similarities
feminine
finishes
##ib
jade
import
##nse
##hot
champagne
mice
securing
celebrities
helsinki
attributes
##gos
cousins
phases
ache
lucia
gandhi
submission
vicar
spear
shine
tasmania
biting
detention
constitute
tighter
seasonal
##gus
terrestrial
matthews
##oka
effectiveness
parody
philharmonic
##onic
1816
strangers
encoded
consortium
guaranteed
regards
shifts
tortured
collision
supervisor
inform
broader
insight
theaters
armour
emeritus
blink
incorporates
mapping
##50
##ein
handball
flexible
##nta
substantially
generous
thief
##own
carr
loses
1793
prose
ucla
romeo
generic
metallic
realization
damages
mk
commissioners
zach
default
##ther
helicopters
lengthy
stems
spa
partnered
spectators
rogue
indication
penalties
teresa
1801
sen
##tric
dalton
##wich
irving
photographic
##vey
dell
deaf
peters
excluded
unsure
##vable
patterson
crawled
##zio
resided
whipped
latvia
slower
ecole
pipes
employers
maharashtra
comparable
va
textile
pageant
##gel
alphabet
binary
irrigation
chartered
choked
antoine
offs
waking
supplement
##wen
quantities
demolition
regain
locate
urdu
folks
alt
114
##mc
scary
andreas
whites
##ava
classrooms
mw
aesthetic
publishes
valleys
guides
cubs
johannes
bryant
conventions
affecting
##itt
drain
awesome
isolation
prosecutor
ambitious
apology
captive
downs
atmospheric
lorenzo
aisle
beef
foul
##onia
kidding
composite
disturbed
illusion
natives
##ffer
emi
rockets
riverside
wartime
painters
adolf
melted
##ail
uncertainty
simulation
hawks
progressed
meantime
builder
spray
breach
unhappy
regina
russians
##urg
determining
##tation
tram
1806
##quin
aging
##12
1823
garion
rented
mister
diaz
terminated
clip
1817
depend
nervously
disco
owe
defenders
shiva
notorious
disbelief
shiny
worcester
##gation
##yr
trailing
undertook
islander
belarus
limitations
watershed
fuller
overlooking
utilized
raphael
1819
synthetic
breakdown
klein
##nate
moaned
memoir
lamb
practicing
##erly
cellular
arrows
exotic
##graphy
witches
117
charted
rey
hut
hierarchy
subdivision
freshwater
giuseppe
aloud
reyes
qatar
marty
sideways
utterly
sexually
jude
prayers
mccarthy
softball
blend
damien
##gging
##metric
wholly
erupted
lebanese
negro
revenues
tasted
comparative
teamed
transaction
labeled
maori
sovereignty
parkway
trauma
gran
malay
121
advancement
descendant
2020
buzz
salvation
inventory
symbolic
##making
antarctica
mps
##gas
##bro
mohammed
myanmar
holt
submarines
tones
##lman
locker
patriarch
bangkok
emerson
remarks
predators
kin
afghan
confession
norwich
rental
emerge
advantages
##zel
rca
##hold
shortened
storms
aidan
##matic
autonomy
compliance
##quet
dudley
atp
##osis
1803
motto
documentation
summary
professors
spectacular
christina
archdiocese
flashing
innocence
remake
##dell
psychic
reef
scare
employ
rs
sticks
meg
gus
leans
##ude
accompany
bergen
tomas
##iko
doom
wages
pools
##nch
##bes
breasts
scholarly
alison
outline
brittany
breakthrough
willis
realistic
##cut
##boro
competitor
##stan
pike
picnic
icon
designing
commercials
washing
villain
skiing
micro
costumes
auburn
halted
executives
##hat
logistics
cycles
vowel
applicable
barrett
exclaimed
eurovision
eternity
ramon
##umi
##lls
modifications
sweeping
disgust
##uck
torch
aviv
ensuring
rude
dusty
sonic
donovan
outskirts
cu
pathway
##band
##gun
##lines
disciplines
acids
cadet
paired
##40
sketches
##sive
marriages
##⁺
folding
peers
slovak
implies
admired
##beck
1880s
leopold
instinct
attained
weston
megan
horace
##ination
dorsal
ingredients
evolutionary
##its
complications
deity
lethal
brushing
levy
deserted
institutes
posthumously
delivering
telescope
coronation
motivated
rapids
luc
flicked
pays
volcano
tanner
weighed
##nica
crowds
frankie
gifted
addressing
granddaughter
winding
##rna
constantine
gomez
##front
landscapes
rudolf
anthropology
slate
werewolf
##lio
astronomy
circa
rouge
dreaming
sack
knelt
drowned
naomi
prolific
tracked
freezing
herb
##dium
agony
randall
twisting
wendy
deposit
touches
vein
wheeler
##bbled
##bor
batted
retaining
tire
presently
compare
specification
daemon
nigel
##grave
merry
recommendation
czechoslovakia
sandra
ng
roma
##sts
lambert
inheritance
sheikh
winchester
cries
examining
##yle
comeback
cuisine
nave
##iv
ko
retrieve
tomatoes
barker
polished
defining
irene
lantern
personalities
begging
tract
swore
1809
175
##gic
omaha
brotherhood
##rley
haiti
##ots
exeter
##ete
##zia
steele
dumb
pearson
210
surveyed
elisabeth
trends
##ef
fritz
##rf
premium
bugs
fraction
calmly
viking
##birds
tug
inserted
unusually
##ield
confronted
distress
crashing
brent
turks
resign
##olo
cambodia
gabe
sauce
##kal
evelyn
116
extant
clusters
quarry
teenagers
luna
##lers
##ister
affiliation
drill
##ashi
panthers
scenic
libya
anita
strengthen
inscriptions
##cated
lace
sued
judith
riots
##uted
mint
##eta
preparations
midst
dub
challenger
##vich
mock
cf
displaced
wicket
breaths
enables
schmidt
analyst
##lum
ag
highlight
automotive
axe
josef
newark
sufficiently
resembles
50th
##pal
flushed
mum
traits
##ante
commodore
incomplete
warming
titular
ceremonial
ethical
118
celebrating
eighteenth
cao
lima
medalist
mobility
strips
snakes
##city
miniature
zagreb
barton
escapes
umbrella
automated
doubted
differs
cooled
georgetown
dresden
cooked
fade
wyatt
rna
jacobs
carlton
abundant
stereo
boost
madras
inning
##hia
spur
ip
malayalam
begged
osaka
groan
escaping
charging
dose
vista
##aj
bud
papa
communists
advocates
edged
tri
##cent
resemble
peaking
necklace
fried
montenegro
saxony
goose
glances
stuttgart
curator
recruit
grocery
sympathetic
##tting
##fort
127
lotus
randolph
ancestor
##rand
succeeding
jupiter
1798
macedonian
##heads
hiking
1808
handing
fischer
##itive
garbage
node
##pies
prone
singular
papua
inclined
attractions
italia
pouring
motioned
grandma
garnered
jacksonville
corp
ego
ringing
aluminum
##hausen
ordering
##foot
drawer
traders
synagogue
##play
##kawa
resistant
wandering
fragile
fiona
teased
var
hardcore
soaked
jubilee
decisive
exposition
mercer
poster
valencia
hale
kuwait
1811
##ises
##wr
##eed
tavern
gamma
122
johan
##uer
airways
amino
gil
##ury
vocational
domains
torres
##sp
generator
folklore
outcomes
##keeper
canberra
shooter
fl
beams
confrontation
##lling
##gram
feb
aligned
forestry
pipeline
jax
motorway
conception
decay
##tos
coffin
##cott
stalin
1805
escorted
minded
##nam
sitcom
purchasing
twilight
veronica
additions
passive
tensions
straw
123
frequencies
1804
refugee
cultivation
##iate
christie
clary
bulletin
crept
disposal
##rich
##zong
processor
crescent
##rol
bmw
emphasized
whale
nazis
aurora
##eng
dwelling
hauled
sponsors
toledo
mega
ideology
theatres
tessa
cerambycidae
saves
turtle
cone
suspects
kara
rusty
yelling
greeks
mozart
shades
cocked
participant
##tro
shire
spit
freeze
necessity
##cos
inmates
nielsen
councillors
loaned
uncommon
omar
peasants
botanical
offspring
daniels
formations
jokes
1794
pioneers
sigma
licensing
##sus
wheelchair
polite
1807
liquor
pratt
trustee
##uta
forewings
balloon
##zz
kilometre
camping
explicit
casually
shawn
foolish
teammates
nm
hassan
carrie
judged
satisfy
vanessa
knives
selective
cnn
flowed
##lice
eclipse
stressed
eliza
mathematician
cease
cultivated
##roy
commissions
browns
##ania
destroyers
sheridan
meadow
##rius
minerals
##cial
downstream
clash
gram
memoirs
ventures
baha
seymour
archie
midlands
edith
fare
flynn
invite
canceled
tiles
stabbed
boulder
incorporate
amended
camden
facial
mollusk
unreleased
descriptions
yoga
grabs
550
raises
ramp
shiver
##rose
coined
pioneering
tunes
qing
warwick
tops
119
melanie
giles
##rous
wandered
##inal
annexed
nov
30th
unnamed
##ished
organizational
airplane
normandy
stoke
whistle
blessing
violations
chased
holders
shotgun
##ctic
outlet
reactor
##vik
tires
tearing
shores
fortified
mascot
constituencies
nc
columnist
productive
tibet
##rta
lineage
hooked
oct
tapes
judging
cody
##gger
hansen
kashmir
triggered
##eva
solved
cliffs
##tree
resisted
anatomy
protesters
transparent
implied
##iga
injection
mattress
excluding
##mbo
defenses
helpless
devotion
##elli
growl
liberals
weber
phenomena
atoms
plug
##iff
mortality
apprentice
howe
convincing
aaa
swimmer
barber
leone
promptly
sodium
def
nowadays
arise
##oning
gloucester
corrected
dignity
norm
erie
##ders
elders
evacuated
sylvia
compression
##yar
hartford
pose
backpack
reasoning
accepts
24th
wipe
millimetres
marcel
##oda
dodgers
albion
1790
overwhelmed
aerospace
oaks
1795
showcase
acknowledge
recovering
nolan
ashe
hurts
geology
fashioned
disappearance
farewell
swollen
shrug
marquis
wimbledon
124
rue
1792
commemorate
reduces
experiencing
inevitable
calcutta
intel
##court
murderer
sticking
fisheries
imagery
bloom
280
brake
##inus
gustav
hesitation
memorable
po
viral
beans
accidents
tunisia
antenna
spilled
consort
treatments
aye
perimeter
##gard
donation
hostage
migrated
banker
addiction
apex
lil
trout
##ously
conscience
##nova
rams
sands
genome
passionate
troubles
##lets
##set
amid
##ibility
##ret
higgins
exceed
vikings
##vie
payne
##zan
muscular
##ste
defendant
sucking
##wal
ibrahim
fuselage
claudia
vfl
europeans
snails
interval
##garh
preparatory
statewide
tasked
lacrosse
viktor
##lation
angola
##hra
flint
implications
employs
teens
patrons
stall
weekends
barriers
scrambled
nucleus
tehran
jenna
parsons
lifelong
robots
displacement
5000
##bles
precipitation
##gt
knuckles
clutched
1802
marrying
ecology
marx
accusations
declare
scars
kolkata
mat
meadows
bermuda
skeleton
finalists
vintage
crawl
coordinate
affects
subjected
orchestral
mistaken
##tc
mirrors
dipped
relied
260
arches
candle
##nick
incorporating
wildly
fond
basilica
owl
fringe
rituals
whispering
stirred
feud
tertiary
slick
goat
honorable
whereby
skip
ricardo
stripes
parachute
adjoining
submerged
synthesizer
##gren
intend
positively
ninety
phi
beaver
partition
fellows
alexis
prohibition
carlisle
bizarre
fraternity
##bre
doubts
icy
cbc
aquatic
sneak
sonny
combines
airports
crude
supervised
spatial
merge
alfonso
##bic
corrupt
scan
undergo
##ams
disabilities
colombian
comparing
dolphins
perkins
##lish
reprinted
unanimous
bounced
hairs
underworld
midwest
semester
bucket
paperback
miniseries
coventry
demise
##leigh
demonstrations
sensor
rotating
yan
##hler
arrange
soils
##idge
hyderabad
labs
##dr
brakes
grandchildren
##nde
negotiated
rover
ferrari
continuation
directorate
augusta
stevenson
counterpart
gore
##rda
nursery
rican
ave
collectively
broadly
pastoral
repertoire
asserted
discovering
nordic
styled
fiba
cunningham
harley
middlesex
survives
tumor
tempo
zack
aiming
lok
urgent
##rade
##nto
devils
##ement
contractor
turin
##wl
##ool
bliss
repaired
simmons
moan
astronomical
cr
negotiate
lyric
1890s
lara
bred
clad
angus
pbs
##ience
engineered
posed
##lk
hernandez
possessions
elbows
psychiatric
strokes
confluence
electorate
lifts
campuses
lava
alps
##ep
##ution
##date
physicist
woody
##page
##ographic
##itis
juliet
reformation
sparhawk
320
complement
suppressed
jewel
##½
floated
##kas
continuity
sadly
##ische
inability
melting
scanning
paula
flour
judaism
safer
vague
##lm
solving
curb
##stown
financially
gable
bees
expired
miserable
cassidy
dominion
1789
cupped
145
robbery
facto
amos
warden
resume
tallest
marvin
ing
pounded
usd
declaring
gasoline
##aux
darkened
270
650
sophomore
##mere
erection
gossip
televised
risen
dial
##eu
pillars
##link
passages
profound
##tina
arabian
ashton
silicon
nail
##ead
##lated
##wer
##hardt
fleming
firearms
ducked
circuits
blows
waterloo
titans
##lina
atom
fireplace
cheshire
financed
activation
algorithms
##zzi
constituent
catcher
cherokee
partnerships
sexuality
platoon
tragic
vivian
guarded
whiskey
meditation
poetic
##late
##nga
##ake
porto
listeners
dominance
kendra
mona
chandler
factions
22nd
salisbury
attitudes
derivative
##ido
##haus
intake
paced
javier
illustrator
barrels
bias
cockpit
burnett
dreamed
ensuing
##anda
receptors
someday
hawkins
mattered
##lal
slavic
1799
jesuit
cameroon
wasted
tai
wax
lowering
victorious
freaking
outright
hancock
librarian
sensing
bald
calcium
myers
tablet
announcing
barack
shipyard
pharmaceutical
##uan
greenwich
flush
medley
patches
wolfgang
pt
speeches
acquiring
exams
nikolai
##gg
hayden
kannada
##type
reilly
##pt
waitress
abdomen
devastated
capped
pseudonym
pharmacy
fulfill
paraguay
1796
clicked
##trom
archipelago
syndicated
##hman
lumber
orgasm
rejection
clifford
lorraine
advent
mafia
rodney
brock
##ght
##used
##elia
cassette
chamberlain
despair
mongolia
sensors
developmental
upstream
##eg
##alis
spanning
165
trombone
basque
seeded
interred
renewable
rhys
leapt
revision
molecule
##ages
chord
vicious
nord
shivered
23rd
arlington
debts
corpus
sunrise
bays
blackburn
centimetres
##uded
shuddered
gm
strangely
gripping
cartoons
isabelle
orbital
##ppa
seals
proving
##lton
refusal
strengthened
bust
assisting
baghdad
batsman
portrayal
mara
pushes
spears
og
##cock
reside
nathaniel
brennan
1776
confirmation
caucus
##worthy
markings
yemen
nobles
ku
lazy
viewer
catalan
encompasses
sawyer
##fall
sparked
substances
patents
braves
arranger
evacuation
sergio
persuade
dover
tolerance
penguin
cum
jockey
insufficient
townships
occupying
declining
plural
processed
projection
puppet
flanders
introduces
liability
##yon
gymnastics
antwerp
taipei
hobart
candles
jeep
wes
observers
126
chaplain
bundle
glorious
##hine
hazel
flung
sol
excavations
dumped
stares
sh
bangalore
triangular
icelandic
intervals
expressing
turbine
##vers
songwriting
crafts
##igo
jasmine
ditch
rite
##ways
entertaining
comply
sorrow
wrestlers
basel
emirates
marian
rivera
helpful
##some
caution
downward
networking
##atory
##tered
darted
genocide
emergence
replies
specializing
spokesman
convenient
unlocked
fading
augustine
concentrations
resemblance
elijah
investigator
andhra
##uda
promotes
bean
##rrell
fleeing
wan
simone
announcer
##ame
##bby
lydia
weaver
132
residency
modification
##fest
stretches
##ast
alternatively
nat
lowe
lacks
##ented
pam
tile
concealed
inferior
abdullah
residences
tissues
vengeance
##ided
moisture
peculiar
groove
zip
bologna
jennings
ninja
oversaw
zombies
pumping
batch
livingston
emerald
installations
1797
peel
nitrogen
rama
##fying
##star
schooling
strands
responding
werner
##ost
lime
casa
accurately
targeting
##rod
underway
##uru
hemisphere
lester
##yard
occupies
2d
griffith
angrily
reorganized
##owing
courtney
deposited
##dd
##30
estadio
##ifies
dunn
exiled
##ying
checks
##combe
##о
##fly
successes
unexpectedly
blu
assessed
##flower
##ه
observing
sacked
spiders
kn
##tail
mu
nodes
prosperity
audrey
divisional
155
broncos
tangled
adjust
feeds
erosion
paolo
surf
directory
snatched
humid
admiralty
screwed
gt
reddish
##nese
modules
trench
lamps
bind
leah
bucks
competes
##nz
##form
transcription
##uc
isles
violently
clutching
pga
cyclist
inflation
flats
ragged
unnecessary
##hian
stubborn
coordinated
harriet
baba
disqualified
330
insect
wolfe
##fies
reinforcements
rocked
duel
winked
embraced
bricks
##raj
hiatus
defeats
pending
brightly
jealousy
##xton
##hm
##uki
lena
gdp
colorful
##dley
stein
kidney
##shu
underwear
wanderers
##haw
##icus
guardians
m³
roared
habits
##wise
permits
gp
uranium
punished
disguise
bundesliga
elise
dundee
erotic
partisan
pi
collectors
float
individually
rendering
behavioral
bucharest
ser
hare
valerie
corporal
nutrition
proportional
##isa
immense
##kis
pavement
##zie
##eld
sutherland
crouched
1775
##lp
suzuki
trades
endurance
operas
crosby
prayed
priory
rory
socially
##urn
gujarat
##pu
walton
cube
pasha
privilege
lennon
floods
thorne
waterfall
nipple
scouting
approve
##lov
minorities
voter
dwight
extensions
assure
ballroom
slap
dripping
privileges
rejoined
confessed
demonstrating
patriotic
yell
investor
##uth
pagan
slumped
squares
##cle
##kins
confront
bert
embarrassment
##aid
aston
urging
sweater
starr
yuri
brains
williamson
commuter
mortar
structured
selfish
exports
##jon
cds
##him
unfinished
##rre
mortgage
destinations
##nagar
canoe
solitary
buchanan
delays
magistrate
fk
##pling
motivation
##lier
##vier
recruiting
assess
##mouth
malik
antique
1791
pius
rahman
reich
tub
zhou
smashed
airs
galway
xii
conditioning
honduras
discharged
dexter
##pf
lionel
129
debates
lemon
tiffany
volunteered
dom
dioxide
procession
devi
sic
tremendous
advertisements
colts
transferring
verdict
hanover
decommissioned
utter
relate
pac
racism
##top
beacon
limp
similarity
terra
occurrence
ant
##how
becky
capt
updates
armament
richie
pal
##graph
halloween
mayo
##ssen
##bone
cara
serena
fcc
dolls
obligations
##dling
violated
lafayette
jakarta
exploitation
##ime
infamous
iconic
##lah
##park
kitty
moody
reginald
dread
spill
crystals
olivier
modeled
bluff
equilibrium
separating
notices
ordnance
extinction
onset
cosmic
attachment
sammy
expose
privy
anchored
##bil
abbott
admits
bending
baritone
emmanuel
policeman
vaughan
winged
climax
dresses
denny
polytechnic
mohamed
burmese
authentic
nikki
genetics
grandparents
homestead
gaza
postponed
metacritic
una
##sby
##bat
unstable
dissertation
##rial
##cian
curls
obscure
uncovered
bronx
praying
disappearing
##hoe
prehistoric
coke
turret
mutations
nonprofit
pits
monaco
##ي
##usion
prominently
dispatched
podium
##mir
uci
##uation
133
fortifications
birthplace
kendall
##lby
##oll
preacher
rack
goodman
##rman
persistent
##ott
countless
jaime
recorder
lexington
persecution
jumps
renewal
wagons
##11
crushing
##holder
decorations
##lake
abundance
wrath
laundry
£1
garde
##rp
jeanne
beetles
peasant
##sl
splitting
caste
sergei
##rer
##ema
scripts
##ively
rub
satellites
##vor
inscribed
verlag
scrapped
gale
packages
chick
potato
slogan
kathleen
arabs
##culture
counterparts
reminiscent
choral
##tead
rand
retains
bushes
dane
accomplish
courtesy
closes
##oth
slaughter
hague
krakow
lawson
tailed
elias
ginger
##ttes
canopy
betrayal
rebuilding
turf
##hof
frowning
allegiance
brigades
kicks
rebuild
polls
alias
nationalism
td
rowan
audition
bowie
fortunately
recognizes
harp
dillon
horrified
##oro
renault
##tics
ropes
##α
presumed
rewarded
infrared
wiping
accelerated
illustration
##rid
presses
practitioners
badminton
##iard
detained
##tera
recognizing
relates
misery
##sies
##tly
reproduction
piercing
potatoes
thornton
esther
manners
hbo
##aan
ours
bullshit
ernie
perennial
sensitivity
illuminated
rupert
##jin
##iss
##ear
rfc
nassau
##dock
staggered
socialism
##haven
appointments
nonsense
prestige
sharma
haul
##tical
solidarity
gps
##ook
##rata
igor
pedestrian
##uit
baxter
tenants
wires
medication
unlimited
guiding
impacts
diabetes
##rama
sasha
pas
clive
extraction
131
continually
constraints
##bilities
sonata
hunted
sixteenth
chu
planting
quote
mayer
pretended
abs
spat
##hua
ceramic
##cci
curtains
pigs
pitching
##dad
latvian
sore
dayton
##sted
##qi
patrols
slice
playground
##nted
shone
stool
apparatus
inadequate
mates
treason
##ija
desires
##liga
##croft
somalia
laurent
mir
leonardo
oracle
grape
obliged
chevrolet
thirteenth
stunning
enthusiastic
##ede
accounted
concludes
currents
basil
##kovic
drought
##rica
mai
##aire
shove
posting
##shed
pilgrimage
humorous
packing
fry
pencil
wines
smells
144
marilyn
aching
newest
clung
bon
neighbours
sanctioned
##pie
mug
##stock
drowning
##mma
hydraulic
##vil
hiring
reminder
lilly
investigators
##ncies
sour
##eous
compulsory
packet
##rion
##graphic
##elle
cannes
##inate
depressed
##rit
heroic
importantly
theresa
##tled
conway
saturn
marginal
rae
##xia
corresponds
royce
pact
jasper
explosives
packaging
aluminium
##ttered
denotes
rhythmic
spans
assignments
hereditary
outlined
originating
sundays
lad
reissued
greeting
beatrice
##dic
pillar
marcos
plots
handbook
alcoholic
judiciary
avant
slides
extract
masculine
blur
##eum
##force
homage
trembled
owens
hymn
trey
omega
signaling
socks
accumulated
reacted
attic
theo
lining
angie
distraction
primera
talbot
##key
1200
ti
creativity
billed
##hey
deacon
eduardo
identifies
proposition
dizzy
gunner
hogan
##yam
##pping
##hol
ja
##chan
jensen
reconstructed
##berger
clearance
darius
##nier
abe
harlem
plea
dei
circled
emotionally
notation
fascist
neville
exceeded
upwards
viable
ducks
##fo
workforce
racer
limiting
shri
##lson
possesses
1600
kerr
moths
devastating
laden
disturbing
locking
##cture
gal
fearing
accreditation
flavor
aide
1870s
mountainous
##baum
melt
##ures
motel
texture
servers
soda
##mb
herd
##nium
erect
puzzled
hum
peggy
examinations
gould
testified
geoff
ren
devised
sacks
##law
denial
posters
grunted
cesar
tutor
ec
gerry
offerings
byrne
falcons
combinations
ct
incoming
pardon
rocking
26th
avengers
flared
mankind
seller
uttar
loch
nadia
stroking
exposing
##hd
fertile
ancestral
instituted
##has
noises
prophecy
taxation
eminent
vivid
pol
##bol
dart
indirect
multimedia
notebook
upside
displaying
adrenaline
referenced
geometric
##iving
progression
##ddy
blunt
announce
##far
implementing
##lav
aggression
liaison
cooler
cares
headache
plantations
gorge
dots
impulse
thickness
ashamed
averaging
kathy
obligation
precursor
137
fowler
symmetry
thee
225
hears
##rai
undergoing
ads
butcher
bowler
##lip
cigarettes
subscription
goodness
##ically
browne
##hos
##tech
kyoto
donor
##erty
damaging
friction
drifting
expeditions
hardened
prostitution
152
fauna
blankets
claw
tossing
snarled
butterflies
recruits
investigative
coated
healed
138
communal
hai
xiii
academics
boone
psychologist
restless
lahore
stephens
mba
brendan
foreigners
printer
##pc
ached
explode
27th
deed
scratched
dared
##pole
cardiac
1780
okinawa
proto
commando
compelled
oddly
electrons
##base
replica
thanksgiving
##rist
sheila
deliberate
stafford
tidal
representations
hercules
ou
##path
##iated
kidnapping
lenses
##tling
deficit
samoa
mouths
consuming
computational
maze
granting
smirk
razor
fixture
ideals
inviting
aiden
nominal
##vs
issuing
julio
pitt
ramsey
docks
##oss
exhaust
##owed
bavarian
draped
anterior
mating
ethiopian
explores
noticing
##nton
discarded
convenience
hoffman
endowment
beasts
cartridge
mormon
paternal
probe
sleeves
interfere
lump
deadline
##rail
jenks
bulldogs
scrap
alternating
justified
reproductive
nam
seize
descending
secretariat
kirby
coupe
grouped
smash
panther
sedan
tapping
##18
lola
cheer
germanic
unfortunate
##eter
unrelated
##fan
subordinate
##sdale
suzanne
advertisement
##ility
horsepower
##lda
cautiously
discourse
luigi
##mans
##fields
noun
prevalent
mao
schneider
everett
surround
governorate
kira
##avia
westward
##take
misty
rails
sustainability
134
unused
##rating
packs
toast
unwilling
regulate
thy
suffrage
nile
awe
assam
definitions
travelers
affordable
##rb
conferred
sells
undefeated
beneficial
torso
basal
repeating
remixes
##pass
bahrain
cables
fang
##itated
excavated
numbering
statutory
##rey
deluxe
##lian
forested
ramirez
derbyshire
zeus
slamming
transfers
astronomer
banana
lottery
berg
histories
bamboo
##uchi
resurrection
posterior
bowls
vaguely
##thi
thou
preserving
tensed
offence
##inas
meyrick
callum
ridden
watt
langdon
tying
lowland
snorted
daring
truman
##hale
##girl
aura
overly
filing
weighing
goa
infections
philanthropist
saunders
eponymous
##owski
latitude
perspectives
reviewing
mets
commandant
radial
##kha
flashlight
reliability
koch
vowels
amazed
ada
elaine
supper
##rth
##encies
predator
debated
soviets
cola
##boards
##nah
compartment
crooked
arbitrary
fourteenth
##ctive
havana
majors
steelers
clips
profitable
ambush
exited
packers
##tile
nude
cracks
fungi
##е
limb
trousers
josie
shelby
tens
frederic
##ος
definite
smoothly
constellation
insult
baton
discs
lingering
##nco
conclusions
lent
staging
becker
grandpa
shaky
##tron
einstein
obstacles
sk
adverse
elle
economically
##moto
mccartney
thor
dismissal
motions
readings
nostrils
treatise
##pace
squeezing
evidently
prolonged
1783
venezuelan
je
marguerite
beirut
takeover
shareholders
##vent
denise
digit
airplay
norse
##bbling
imaginary
pills
hubert
blaze
vacated
eliminating
##ello
vine
mansfield
##tty
retrospective
barrow
borne
clutch
bail
forensic
weaving
##nett
##witz
desktop
citadel
promotions
worrying
dorset
ieee
subdivided
##iating
manned
expeditionary
pickup
synod
chuckle
185
barney
##rz
##ffin
functionality
karachi
litigation
meanings
uc
lick
turbo
anders
##ffed
execute
curl
oppose
ankles
typhoon
##د
##ache
##asia
linguistics
compassion
pressures
grazing
perfection
##iting
immunity
monopoly
muddy
backgrounds
136
namibia
francesca
monitors
attracting
stunt
tuition
##ии
vegetable
##mates
##quent
mgm
jen
complexes
forts
##ond
cellar
bites
seventeenth
royals
flemish
failures
mast
charities
##cular
peruvian
capitals
macmillan
ipswich
outward
frigate
postgraduate
folds
employing
##ouse
concurrently
fiery
##tai
contingent
nightmares
monumental
nicaragua
##kowski
lizard
mal
fielding
gig
reject
##pad
harding
##ipe
coastline
##cin
##nos
beethoven
humphrey
innovations
##tam
##nge
norris
doris
solicitor
huang
obey
141
##lc
niagara
##tton
shelves
aug
bourbon
curry
nightclub
specifications
hilton
##ndo
centennial
dispersed
worm
neglected
briggs
sm
font
kuala
uneasy
plc
##nstein
##bound
##aking
##burgh
awaiting
pronunciation
##bbed
##quest
eh
optimal
zhu
raped
greens
presided
brenda
worries
##life
venetian
marxist
turnout
##lius
refined
braced
sins
grasped
sunderland
nickel
speculated
lowell
cyrillic
communism
fundraising
resembling
colonists
mutant
freddie
usc
##mos
gratitude
##run
mural
##lous
chemist
wi
reminds
28th
steals
tess
pietro
##ingen
promoter
ri
microphone
honoured
rai
sant
##qui
feather
##nson
burlington
kurdish
terrorists
deborah
sickness
##wed
##eet
hazard
irritated
desperation
veil
clarity
##rik
jewels
xv
##gged
##ows
##cup
berkshire
unfair
mysteries
orchid
winced
exhaustion
renovations
stranded
obe
infinity
##nies
adapt
redevelopment
thanked
registry
olga
domingo
noir
tudor
ole
##atus
commenting
behaviors
##ais
crisp
pauline
probable
stirling
wigan
##bian
paralympics
panting
surpassed
##rew
luca
barred
pony
famed
##sters
cassandra
waiter
carolyn
exported
##orted
andres
destructive
deeds
jonah
castles
vacancy
suv
##glass
1788
orchard
yep
famine
belarusian
sprang
##forth
skinny
##mis
administrators
rotterdam
zambia
zhao
boiler
discoveries
##ride
##physics
lucius
disappointing
outreach
spoon
##frame
qualifications
unanimously
enjoys
regency
##iidae
stade
realism
veterinary
rodgers
dump
alain
chestnut
castile
censorship
rumble
gibbs
##itor
communion
reggae
inactivated
logs
loads
##houses
homosexual
##iano
ale
informs
##cas
phrases
plaster
linebacker
ambrose
kaiser
fascinated
850
limerick
recruitment
forge
mastered
##nding
leinster
rooted
threaten
##strom
borneo
##hes
suggestions
scholarships
propeller
documentaries
patronage
coats
constructing
invest
neurons
comet
entirety
shouts
identities
annoying
unchanged
wary
##antly
##ogy
neat
oversight
##kos
phillies
replay
constance
##kka
incarnation
humble
skies
minus
##acy
smithsonian
##chel
guerrilla
jar
cadets
##plate
surplus
audit
##aru
cracking
joanna
louisa
pacing
##lights
intentionally
##iri
diner
nwa
imprint
australians
tong
unprecedented
bunker
naive
specialists
ark
nichols
railing
leaked
pedal
##uka
shrub
longing
roofs
v8
captains
neural
tuned
##ntal
##jet
emission
medina
frantic
codex
definitive
sid
abolition
intensified
stocks
enrique
sustain
genoa
oxide
##written
clues
cha
##gers
tributaries
fragment
venom
##rity
##ente
##sca
muffled
vain
sire
laos
##ingly
##hana
hastily
snapping
surfaced
sentiment
motive
##oft
contests
approximate
mesa
luckily
dinosaur
exchanges
propelled
accord
bourne
relieve
tow
masks
offended
##ues
cynthia
##mmer
rains
bartender
zinc
reviewers
lois
##sai
legged
arrogant
rafe
rosie
comprise
handicap
blockade
inlet
lagoon
copied
drilling
shelley
petals
##inian
mandarin
obsolete
##inated
onward
arguably
productivity
cindy
praising
seldom
busch
discusses
raleigh
shortage
ranged
stanton
encouragement
firstly
conceded
overs
temporal
##uke
cbe
##bos
woo
certainty
pumps
##pton
stalked
##uli
lizzie
periodic
thieves
weaker
##night
gases
shoving
chooses
wc
##chemical
prompting
weights
##kill
robust
flanked
sticky
hu
tuberculosis
##eb
##eal
christchurch
resembled
wallet
reese
inappropriate
pictured
distract
fixing
fiddle
giggled
burger
heirs
hairy
mechanic
torque
apache
obsessed
chiefly
cheng
logging
##tag
extracted
meaningful
numb
##vsky
gloucestershire
reminding
##bay
unite
##lit
breeds
diminished
clown
glove
1860s
##ن
##ug
archibald
focal
freelance
sliced
depiction
##yk
organism
switches
sights
stray
crawling
##ril
lever
leningrad
interpretations
loops
anytime
reel
alicia
delighted
##ech
inhaled
xiv
suitcase
bernie
vega
licenses
northampton
exclusion
induction
monasteries
racecourse
homosexuality
##right
##sfield
##rky
dimitri
michele
alternatives
ions
commentators
genuinely
objected
pork
hospitality
fencing
stephan
warships
peripheral
wit
drunken
wrinkled
quentin
spends
departing
chung
numerical
spokesperson
##zone
johannesburg
caliber
killers
##udge
assumes
neatly
demographic
abigail
bloc
##vel
mounting
##lain
bentley
slightest
xu
recipients
##jk
merlin
##writer
seniors
prisons
blinking
hindwings
flickered
kappa
##hel
80s
strengthening
appealing
brewing
gypsy
mali
lashes
hulk
unpleasant
harassment
bio
treaties
predict
instrumentation
pulp
troupe
boiling
mantle
##ffe
ins
##vn
dividing
handles
verbs
##onal
coconut
senegal
340
thorough
gum
momentarily
##sto
cocaine
panicked
destined
##turing
teatro
denying
weary
captained
mans
##hawks
##code
wakefield
bollywood
thankfully
##16
cyril
##wu
amendments
##bahn
consultation
stud
reflections
kindness
1787
internally
##ovo
tex
mosaic
distribute
paddy
seeming
143
##hic
piers
##15
##mura
##verse
popularly
winger
kang
sentinel
mccoy
##anza
covenant
##bag
verge
fireworks
suppress
thrilled
dominate
##jar
swansea
##60
142
reconciliation
##ndi
stiffened
cue
dorian
##uf
damascus
amor
ida
foremost
##aga
porsche
unseen
dir
##had
##azi
stony
lexi
melodies
##nko
angular
integer
podcast
ants
inherent
jaws
justify
persona
##olved
josephine
##nr
##ressed
customary
flashes
gala
cyrus
glaring
backyard
ariel
physiology
greenland
html
stir
avon
atletico
finch
methodology
ked
##lent
mas
catholicism
townsend
branding
quincy
fits
containers
1777
ashore
aragon
##19
forearm
poisoning
##sd
adopting
conquer
grinding
amnesty
keller
finances
evaluate
forged
lankan
instincts
##uto
guam
bosnian
photographed
workplace
desirable
protector
##dog
allocation
intently
encourages
willy
##sten
bodyguard
electro
brighter
##ν
bihar
##chev
lasts
opener
amphibious
sal
verde
arte
##cope
captivity
vocabulary
yields
##tted
agreeing
desmond
pioneered
##chus
strap
campaigned
railroads
##ович
emblem
##dre
stormed
501
##ulous
marijuana
northumberland
##gn
##nath
bowen
landmarks
beaumont
##qua
danube
##bler
attorneys
th
ge
flyers
critique
villains
cass
mutation
acc
##0s
colombo
mckay
motif
sampling
concluding
syndicate
##rell
neon
stables
ds
warnings
clint
mourning
wilkinson
##tated
merrill
leopard
evenings
exhaled
emil
sonia
ezra
discrete
stove
farrell
fifteenth
prescribed
superhero
##rier
worms
helm
wren
##duction
##hc
expo
##rator
hq
unfamiliar
antony
prevents
acceleration
fiercely
mari
painfully
calculations
cheaper
ign
clifton
irvine
davenport
mozambique
##np
pierced
##evich
wonders
##wig
##cate
##iling
crusade
ware
##uel
enzymes
reasonably
mls
##coe
mater
ambition
bunny
eliot
kernel
##fin
asphalt
headmaster
torah
aden
lush
pins
waived
##care
##yas
joao
substrate
enforce
##grad
##ules
alvarez
selections
epidemic
tempted
##bit
bremen
translates
ensured
waterfront
29th
forrest
manny
malone
kramer
reigning
cookies
simpler
absorption
205
engraved
##ffy
evaluated
1778
haze
146
comforting
crossover
##abe
thorn
##rift
##imo
##pop
suppression
fatigue
cutter
##tr
201
wurttemberg
##orf
enforced
hovering
proprietary
gb
samurai
syllable
ascent
lacey
tick
lars
tractor
merchandise
rep
bouncing
defendants
##yre
huntington
##ground
##oko
standardized
##hor
##hima
assassinated
nu
predecessors
rainy
liar
assurance
lyrical
##uga
secondly
flattened
ios
parameter
undercover
##mity
bordeaux
punish
ridges
markers
exodus
inactive
hesitate
debbie
nyc
pledge
savoy
nagar
offset
organist
##tium
hesse
marin
converting
##iver
diagram
propulsion
pu
validity
reverted
supportive
##dc
ministries
clans
responds
proclamation
##inae
##ø
##rea
ein
pleading
patriot
sf
birch
islanders
strauss
hates
##dh
brandenburg
concession
rd
##ob
1900s
killings
textbook
antiquity
cinematography
wharf
embarrassing
setup
creed
farmland
inequality
centred
signatures
fallon
370
##ingham
##uts
ceylon
gazing
directive
laurie
##tern
globally
##uated
##dent
allah
excavation
threads
##cross
148
frantically
icc
utilize
determines
respiratory
thoughtful
receptions
##dicate
merging
chandra
seine
147
builders
builds
diagnostic
dev
visibility
goddamn
analyses
dhaka
cho
proves
chancel
concurrent
curiously
canadians
pumped
restoring
1850s
turtles
jaguar
sinister
spinal
traction
declan
vows
1784
glowed
capitalism
swirling
install
universidad
##lder
##oat
soloist
##genic
##oor
coincidence
beginnings
nissan
dip
resorts
caucasus
combustion
infectious
##eno
pigeon
serpent
##itating
conclude
masked
salad
jew
##gr
surreal
toni
##wc
harmonica
151
##gins
##etic
##coat
fishermen
intending
bravery
##wave
klaus
titan
wembley
taiwanese
ransom
40th
incorrect
hussein
eyelids
jp
cooke
dramas
utilities
##etta
##print
eisenhower
principally
granada
lana
##rak
openings
concord
##bl
bethany
connie
morality
sega
##mons
##nard
earnings
##kara
##cine
wii
communes
##rel
coma
composing
softened
severed
grapes
##17
nguyen
analyzed
warlord
hubbard
heavenly
behave
slovenian
##hit
##ony
hailed
filmmakers
trance
caldwell
skye
unrest
coward
likelihood
##aging
bern
sci
taliban
honolulu
propose
##wang
1700
browser
imagining
cobra
contributes
dukes
instinctively
conan
violinist
##ores
accessories
gradual
##amp
quotes
sioux
##dating
undertake
intercepted
sparkling
compressed
139
fungus
tombs
haley
imposing
rests
degradation
lincolnshire
retailers
wetlands
tulsa
distributor
dungeon
nun
greenhouse
convey
atlantis
aft
exits
oman
dresser
lyons
##sti
joking
eddy
judgement
omitted
digits
##cts
##game
juniors
##rae
cents
stricken
une
##ngo
wizards
weir
breton
nan
technician
fibers
liking
royalty
##cca
154
persia
terribly
magician
##rable
##unt
vance
cafeteria
booker
camille
warmer
##static
consume
cavern
gaps
compass
contemporaries
foyer
soothing
graveyard
maj
plunged
blush
##wear
cascade
demonstrates
ordinance
##nov
boyle
##lana
rockefeller
shaken
banjo
izzy
##ense
breathless
vines
##32
##eman
alterations
chromosome
dwellings
feudal
mole
153
catalonia
relics
tenant
mandated
##fm
fridge
hats
honesty
patented
raul
heap
cruisers
accusing
enlightenment
infants
wherein
chatham
contractors
zen
affinity
hc
osborne
piston
156
traps
maturity
##rana
lagos
##zal
peering
##nay
attendant
dealers
protocols
subset
prospects
biographical
##cre
artery
##zers
insignia
nuns
endured
##eration
recommend
schwartz
serbs
berger
cromwell
crossroads
##ctor
enduring
clasped
grounded
##bine
marseille
twitched
abel
choke
https
catalyst
moldova
italians
##tist
disastrous
wee
##oured
##nti
wwf
nope
##piration
##asa
expresses
thumbs
167
##nza
coca
1781
cheating
##ption
skipped
sensory
heidelberg
spies
satan
dangers
semifinal
202
bohemia
whitish
confusing
shipbuilding
relies
surgeons
landings
ravi
baku
moor
suffix
alejandro
##yana
litre
upheld
##unk
rajasthan
##rek
coaster
insists
posture
scenarios
etienne
favoured
appoint
transgender
elephants
poked
greenwood
defences
fulfilled
militant
somali
1758
chalk
potent
##ucci
migrants
wink
assistants
nos
restriction
activism
niger
##ario
colon
shaun
##sat
daphne
##erated
swam
congregations
reprise
considerations
magnet
playable
xvi
##р
overthrow
tobias
knob
chavez
coding
##mers
propped
katrina
orient
newcomer
##suke
temperate
##pool
farmhouse
interrogation
##vd
committing
##vert
forthcoming
strawberry
joaquin
macau
ponds
shocking
siberia
##cellular
chant
contributors
##nant
##ologists
sped
absorb
hail
1782
spared
##hore
barbados
karate
opus
originates
saul
##xie
evergreen
leaped
##rock
correlation
exaggerated
weekday
unification
bump
tracing
brig
afb
pathways
utilizing
##ners
mod
mb
disturbance
kneeling
##stad
##guchi
100th
pune
##thy
decreasing
168
manipulation
miriam
academia
ecosystem
occupational
rbi
##lem
rift
##14
rotary
stacked
incorporation
awakening
generators
guerrero
racist
##omy
cyber
derivatives
culminated
allie
annals
panzer
sainte
wikipedia
pops
zu
austro
##vate
algerian
politely
nicholson
mornings
educate
tastes
thrill
dartmouth
##gating
db
##jee
regan
differing
concentrating
choreography
divinity
##media
pledged
alexandre
routing
gregor
madeline
##idal
apocalypse
##hora
gunfire
culminating
elves
fined
liang
lam
programmed
tar
guessing
transparency
gabrielle
##gna
cancellation
flexibility
##lining
accession
shea
stronghold
nets
specializes
##rgan
abused
hasan
sgt
ling
exceeding
##₄
admiration
supermarket
##ark
photographers
specialised
tilt
resonance
hmm
perfume
380
sami
threatens
garland
botany
guarding
boiled
greet
puppy
russo
supplier
wilmington
vibrant
vijay
##bius
paralympic
grumbled
paige
faa
licking
margins
hurricanes
##gong
fest
grenade
ripping
##uz
counseling
weigh
##sian
needles
wiltshire
edison
costly
##not
fulton
tramway
redesigned
staffordshire
cache
gasping
watkins
sleepy
candidacy
##group
monkeys
timeline
throbbing
##bid
##sos
berth
uzbekistan
vanderbilt
bothering
overturned
ballots
gem
##iger
sunglasses
subscribers
hooker
compelling
ang
exceptionally
saloon
stab
##rdi
carla
terrifying
rom
##vision
coil
##oids
satisfying
vendors
31st
mackay
deities
overlooked
ambient
bahamas
felipe
olympia
whirled
botanist
advertised
tugging
##dden
disciples
morales
unionist
rites
foley
morse
motives
creepy
##₀
soo
##sz
bargain
highness
frightening
turnpike
tory
reorganization
##cer
depict
biographer
##walk
unopposed
manifesto
##gles
institut
emile
accidental
kapoor
##dam
kilkenny
cortex
lively
##13
romanesque
jain
shan
cannons
##ood
##ske
petrol
echoing
amalgamated
disappears
cautious
proposes
sanctions
trenton
##ر
flotilla
aus
contempt
tor
canary
cote
theirs
##hun
conceptual
deleted
fascinating
paso
blazing
elf
honourable
hutchinson
##eiro
##outh
##zin
surveyor
tee
amidst
wooded
reissue
intro
##ono
cobb
shelters
newsletter
hanson
brace
encoding
confiscated
dem
caravan
marino
scroll
melodic
cows
imam
##adi
##aneous
northward
searches
biodiversity
cora
310
roaring
##bers
connell
theologian
halo
compose
pathetic
unmarried
dynamo
##oot
az
calculation
toulouse
deserves
humour
nr
forgiveness
tam
undergone
martyr
pamela
myths
whore
counselor
hicks
290
heavens
battleship
electromagnetic
##bbs
stellar
establishments
presley
hopped
##chin
temptation
90s
wills
nas
##yuan
nhs
##nya
seminars
##yev
adaptations
gong
asher
lex
indicator
sikh
tobago
cites
goin
##yte
satirical
##gies
characterised
correspond
bubbles
lure
participates
##vid
eruption
skate
therapeutic
1785
canals
wholesale
defaulted
sac
460
petit
##zzled
virgil
leak
ravens
256
portraying
##yx
ghetto
creators
dams
portray
vicente
##rington
fae
namesake
bounty
##arium
joachim
##ota
##iser
aforementioned
axle
snout
depended
dismantled
reuben
480
##ibly
gallagher
##lau
##pd
earnest
##ieu
##iary
inflicted
objections
##llar
asa
gritted
##athy
jericho
##sea
##was
flick
underside
ceramics
undead
substituted
195
eastward
undoubtedly
wheeled
chimney
##iche
guinness
cb
##ager
siding
##bell
traitor
baptiste
disguised
inauguration
149
tipperary
choreographer
perched
warmed
stationary
eco
##ike
##ntes
bacterial
##aurus
flores
phosphate
##core
attacker
invaders
alvin
intersects
a1
indirectly
immigrated
businessmen
cornelius
valves
narrated
pill
sober
ul
nationale
monastic
applicants
scenery
##jack
161
motifs
constitutes
cpu
##osh
jurisdictions
sd
tuning
irritation
woven
##uddin
fertility
gao
##erie
antagonist
impatient
glacial
hides
boarded
denominations
interception
##jas
cookie
nicola
##tee
algebraic
marquess
bahn
parole
buyers
bait
turbines
paperwork
bestowed
natasha
renee
oceans
purchases
157
vaccine
215
##tock
fixtures
playhouse
integrate
jai
oswald
intellectuals
##cky
booked
nests
mortimer
##isi
obsession
sept
##gler
##sum
440
scrutiny
simultaneous
squinted
##shin
collects
oven
shankar
penned
remarkably
##я
slips
luggage
spectral
1786
collaborations
louie
consolidation
##ailed
##ivating
420
hoover
blackpool
harness
ignition
vest
tails
belmont
mongol
skinner
##nae
visually
mage
derry
##tism
##unce
stevie
transitional
##rdy
redskins
drying
prep
prospective
##21
annoyance
oversee
##loaded
fills
##books
##iki
announces
fda
scowled
respects
prasad
mystic
tucson
##vale
revue
springer
bankrupt
1772
aristotle
salvatore
habsburg
##geny
dal
natal
nut
pod
chewing
darts
moroccan
walkover
rosario
lenin
punjabi
##ße
grossed
scattering
wired
invasive
hui
polynomial
corridors
wakes
gina
portrays
##cratic
arid
retreating
erich
irwin
sniper
##dha
linen
lindsey
maneuver
butch
shutting
socio
bounce
commemorative
postseason
jeremiah
pines
275
mystical
beads
bp
abbas
furnace
bidding
consulted
assaulted
empirical
rubble
enclosure
sob
weakly
cancel
polly
yielded
##emann
curly
prediction
battered
70s
vhs
jacqueline
render
sails
barked
detailing
grayson
riga
sloane
raging
##yah
herbs
bravo
##athlon
alloy
giggle
imminent
suffers
assumptions
waltz
##itate
accomplishments
##ited
bathing
remixed
deception
prefix
##emia
deepest
##tier
##eis
balkan
frogs
##rong
slab
##pate
philosophers
peterborough
grains
imports
dickinson
rwanda
##atics
1774
dirk
lan
tablets
##rove
clone
##rice
caretaker
hostilities
mclean
##gre
regimental
treasures
norms
impose
tsar
tango
diplomacy
variously
complain
192
recognise
arrests
1779
celestial
pulitzer
##dus
bing
libretto
##moor
adele
splash
##rite
expectation
lds
confronts
##izer
spontaneous
harmful
wedge
entrepreneurs
buyer
##ope
bilingual
translate
rugged
conner
circulated
uae
eaton
##gra
##zzle
lingered
lockheed
vishnu
reelection
alonso
##oom
joints
yankee
headline
cooperate
heinz
laureate
invading
##sford
echoes
scandinavian
##dham
hugging
vitamin
salute
micah
hind
trader
##sper
radioactive
##ndra
militants
poisoned
ratified
remark
campeonato
deprived
wander
prop
##dong
outlook
##tani
##rix
##eye
chiang
darcy
##oping
mandolin
spice
statesman
babylon
182
walled
forgetting
afro
##cap
158
giorgio
buffer
##polis
planetary
##gis
overlap
terminals
kinda
centenary
##bir
arising
manipulate
elm
ke
1770
ak
##tad
chrysler
mapped
moose
pomeranian
quad
macarthur
assemblies
shoreline
recalls
stratford
##rted
noticeable
##evic
imp
##rita
##sque
accustomed
supplying
tents
disgusted
vogue
sipped
filters
khz
reno
selecting
luftwaffe
mcmahon
tyne
masterpiece
carriages
collided
dunes
exercised
flare
remembers
muzzle
##mobile
heck
##rson
burgess
lunged
middleton
boycott
bilateral
##sity
hazardous
lumpur
multiplayer
spotlight
jackets
goldman
liege
porcelain
rag
waterford
benz
attracts
hopeful
battling
ottomans
kensington
baked
hymns
cheyenne
lattice
levine
borrow
polymer
clashes
michaels
monitored
commitments
denounced
##25
##von
cavity
##oney
hobby
akin
##holders
futures
intricate
cornish
patty
##oned
illegally
dolphin
##lag
barlow
yellowish
maddie
apologized
luton
plagued
##puram
nana
##rds
sway
fanny
łodz
##rino
psi
suspicions
hanged
##eding
initiate
charlton
##por
nak
competent
235
analytical
annex
wardrobe
reservations
##rma
sect
162
fairfax
hedge
piled
buckingham
uneven
bauer
simplicity
snyder
interpret
accountability
donors
moderately
byrd
continents
##cite
##max
disciple
hr
jamaican
ping
nominees
##uss
mongolian
diver
attackers
eagerly
ideological
pillows
miracles
apartheid
revolver
sulfur
clinics
moran
163
##enko
ile
katy
rhetoric
##icated
chronology
recycling
##hrer
elongated
mughal
pascal
profiles
vibration
databases
domination
##fare
##rant
matthias
digest
rehearsal
polling
weiss
initiation
reeves
clinging
flourished
impress
ngo
##hoff
##ume
buckley
symposium
rhythms
weed
emphasize
transforming
##taking
##gence
##yman
accountant
analyze
flicker
foil
priesthood
voluntarily
decreases
##80
##hya
slater
sv
charting
mcgill
##lde
moreno
##iu
besieged
zur
robes
##phic
admitting
api
deported
turmoil
peyton
earthquakes
##ares
nationalists
beau
clair
brethren
interrupt
welch
curated
galerie
requesting
164
##ested
impending
steward
viper
##vina
complaining
beautifully
brandy
foam
nl
1660
##cake
alessandro
punches
laced
explanations
##lim
attribute
clit
reggie
discomfort
##cards
smoothed
whales
##cene
adler
countered
duffy
disciplinary
widening
recipe
reliance
conducts
goats
gradient
preaching
##shaw
matilda
quasi
striped
meridian
cannabis
cordoba
certificates
##agh
##tering
graffiti
hangs
pilgrims
repeats
##ych
revive
urine
etat
##hawk
fueled
belts
fuzzy
susceptible
##hang
mauritius
salle
sincere
beers
hooks
##cki
arbitration
entrusted
advise
sniffed
seminar
junk
donnell
processors
principality
strapped
celia
mendoza
everton
fortunes
prejudice
starving
reassigned
steamer
##lund
tuck
evenly
foreman
##ffen
dans
375
envisioned
slit
##xy
baseman
liberia
rosemary
##weed
electrified
periodically
potassium
stride
contexts
sperm
slade
mariners
influx
bianca
subcommittee
##rane
spilling
icao
estuary
##nock
delivers
iphone
##ulata
isa
mira
bohemian
dessert
##sbury
welcoming
proudly
slowing
##chs
musee
ascension
russ
##vian
waits
##psy
africans
exploit
##morphic
gov
eccentric
crab
peck
##ull
entrances
formidable
marketplace
groom
bolted
metabolism
patton
robbins
courier
payload
endure
##ifier
andes
refrigerator
##pr
ornate
##uca
ruthless
illegitimate
masonry
strasbourg
bikes
adobe
##³
apples
quintet
willingly
niche
bakery
corpses
energetic
##cliffe
##sser
##ards
177
centimeters
centro
fuscous
cretaceous
rancho
##yde
andrei
telecom
tottenham
oasis
ordination
vulnerability
presiding
corey
cp
penguins
sims
##pis
malawi
piss
##48
correction
##cked
##ffle
##ryn
countdown
detectives
psychiatrist
psychedelic
dinosaurs
blouse
##get
choi
vowed
##oz
randomly
##pol
49ers
scrub
blanche
bruins
dusseldorf
##using
unwanted
##ums
212
dominique
elevations
headlights
om
laguna
##oga
1750
famously
ignorance
shrewsbury
##aine
ajax
breuning
che
confederacy
greco
overhaul
##screen
paz
skirts
disagreement
cruelty
jagged
phoebe
shifter
hovered
viruses
##wes
mandy
##lined
##gc
landlord
squirrel
dashed
##ι
ornamental
gag
wally
grange
literal
spurs
undisclosed
proceeding
yin
##text
billie
orphan
spanned
humidity
indy
weighted
presentations
explosions
lucian
##tary
vaughn
hindus
##anga
##hell
psycho
171
daytona
protects
efficiently
rematch
sly
tandem
##oya
rebranded
impaired
hee
metropolis
peach
godfrey
diaspora
ethnicity
prosperous
gleaming
dar
grossing
playback
##rden
stripe
pistols
##tain
births
labelled
##cating
172
rudy
alba
##onne
aquarium
hostility
##gb
##tase
shudder
sumatra
hardest
lakers
consonant
creeping
demos
homicide
capsule
zeke
liberties
expulsion
pueblo
##comb
trait
transporting
##ddin
##neck
##yna
depart
gregg
mold
ledge
hangar
oldham
playboy
termination
analysts
gmbh
romero
##itic
insist
cradle
filthy
brightness
slash
shootout
deposed
bordering
##truct
isis
microwave
tumbled
sheltered
cathy
werewolves
messy
andersen
convex
clapped
clinched
satire
wasting
edo
vc
rufus
##jak
mont
##etti
poznan
##keeping
restructuring
transverse
##rland
azerbaijani
slovene
gestures
roommate
choking
shear
##quist
vanguard
oblivious
##hiro
disagreed
baptism
##lich
coliseum
##aceae
salvage
societe
cory
locke
relocation
relying
versailles
ahl
swelling
##elo
cheerful
##word
##edes
gin
sarajevo
obstacle
diverted
##nac
messed
thoroughbred
fluttered
utrecht
chewed
acquaintance
assassins
dispatch
mirza
##wart
nike
salzburg
swell
yen
##gee
idle
ligue
samson
##nds
##igh
playful
spawned
##cise
tease
##case
burgundy
##bot
stirring
skeptical
interceptions
marathi
##dies
bedrooms
aroused
pinch
##lik
preferences
tattoos
buster
digitally
projecting
rust
##ital
kitten
priorities
addison
pseudo
##guard
dusk
icons
sermon
##psis
##iba
bt
##lift
##xt
ju
truce
rink
##dah
##wy
defects
psychiatry
offences
calculate
glucose
##iful
##rized
##unda
francaise
##hari
richest
warwickshire
carly
1763
purity
redemption
lending
##cious
muse
bruises
cerebral
aero
carving
##name
preface
terminology
invade
monty
##int
anarchist
blurred
##iled
rossi
treats
guts
shu
foothills
ballads
undertaking
premise
cecilia
affiliates
blasted
conditional
wilder
minors
drone
rudolph
buffy
swallowing
horton
attested
##hop
rutherford
howell
primetime
livery
penal
##bis
minimize
hydro
wrecked
wrought
palazzo
##gling
cans
vernacular
friedman
nobleman
shale
walnut
danielle
##ection
##tley
sears
##kumar
chords
lend
flipping
streamed
por
dracula
gallons
sacrifices
gamble
orphanage
##iman
mckenzie
##gible
boxers
daly
##balls
##ان
208
##ific
##rative
##iq
exploited
slated
##uity
circling
hillary
pinched
goldberg
provost
campaigning
lim
piles
ironically
jong
mohan
successors
usaf
##tem
##ught
autobiographical
haute
preserves
##ending
acquitted
comparisons
203
hydroelectric
gangs
cypriot
torpedoes
rushes
chrome
derive
bumps
instability
fiat
pets
##mbe
silas
dye
reckless
settler
##itation
info
heats
##writing
176
canonical
maltese
fins
mushroom
stacy
aspen
avid
##kur
##loading
vickers
gaston
hillside
statutes
wilde
gail
kung
sabine
comfortably
motorcycles
##rgo
169
pneumonia
fetch
##sonic
axel
faintly
parallels
##oop
mclaren
spouse
compton
interdisciplinary
miner
##eni
181
clamped
##chal
##llah
separates
versa
##mler
scarborough
labrador
##lity
##osing
rutgers
hurdles
como
166
burt
divers
##100
wichita
cade
coincided
##erson
bruised
mla
##pper
vineyard
##ili
##brush
notch
mentioning
jase
hearted
kits
doe
##acle
pomerania
##ady
ronan
seizure
pavel
problematic
##zaki
domenico
##ulin
catering
penelope
dependence
parental
emilio
ministerial
atkinson
##bolic
clarkson
chargers
colby
grill
peeked
arises
summon
##aged
fools
##grapher
faculties
qaeda
##vial
garner
refurbished
##hwa
geelong
disasters
nudged
bs
shareholder
lori
algae
reinstated
rot
##ades
##nous
invites
stainless
183
inclusive
##itude
diocesan
til
##icz
denomination
##xa
benton
floral
registers
##ider
##erman
##kell
absurd
brunei
guangzhou
hitter
retaliation
##uled
##eve
blanc
nh
consistency
contamination
##eres
##rner
dire
palermo
broadcasters
diaries
inspire
vols
brewer
tightening
ky
mixtape
hormone
##tok
stokes
##color
##dly
##ssi
pg
##ometer
##lington
sanitation
##tility
intercontinental
apps
##adt
¹⁄₂
cylinders
economies
favourable
unison
croix
gertrude
odyssey
vanity
dangling
##logists
upgrades
dice
middleweight
practitioner
##ight
206
henrik
parlor
orion
angered
lac
python
blurted
##rri
sensual
intends
swings
angled
##phs
husky
attain
peerage
precinct
textiles
cheltenham
shuffled
dai
confess
tasting
bhutan
##riation
tyrone
segregation
abrupt
ruiz
##rish
smirked
blackwell
confidential
browning
amounted
##put
vase
scarce
fabulous
raided
staple
guyana
unemployed
glider
shay
##tow
carmine
troll
intervene
squash
superstar
##uce
cylindrical
len
roadway
researched
handy
##rium
##jana
meta
lao
declares
##rring
##tadt
##elin
##kova
willem
shrubs
napoleonic
realms
skater
qi
volkswagen
##ł
tad
hara
archaeologist
awkwardly
eerie
##kind
wiley
##heimer
##24
titus
organizers
cfl
crusaders
lama
usb
vent
enraged
thankful
occupants
maximilian
##gaard
possessing
textbooks
##oran
collaborator
quaker
##ulo
avalanche
mono
silky
straits
isaiah
mustang
surged
resolutions
potomac
descend
cl
kilograms
plato
strains
saturdays
##olin
bernstein
##ype
holstein
ponytail
##watch
belize
conversely
heroine
perpetual
##ylus
charcoal
piedmont
glee
negotiating
backdrop
prologue
##jah
##mmy
pasadena
climbs
ramos
sunni
##holm
##tner
##tri
anand
deficiency
hertfordshire
stout
##avi
aperture
orioles
##irs
doncaster
intrigued
bombed
coating
otis
##mat
cocktail
##jit
##eto
amir
arousal
sar
##proof
##act
##ories
dixie
pots
##bow
whereabouts
159
##fted
drains
bullying
cottages
scripture
coherent
fore
poe
appetite
##uration
sampled
##ators
##dp
derrick
rotor
jays
peacock
installment
##rro
advisors
##coming
rodeo
scotch
##mot
##db
##fen
##vant
ensued
rodrigo
dictatorship
martyrs
twenties
##н
towed
incidence
marta
rainforest
sai
scaled
##cles
oceanic
qualifiers
symphonic
mcbride
dislike
generalized
aubrey
colonization
##iation
##lion
##ssing
disliked
lublin
salesman
##ulates
spherical
whatsoever
sweating
avalon
contention
punt
severity
alderman
atari
##dina
##grant
##rop
scarf
seville
vertices
annexation
fairfield
fascination
inspiring
launches
palatinate
regretted
##rca
feral
##iom
elk
nap
olsen
reddy
yong
##leader
##iae
garment
transports
feng
gracie
outrage
viceroy
insides
##esis
breakup
grady
organizer
softer
grimaced
222
murals
galicia
arranging
vectors
##rsten
bas
##sb
##cens
sloan
##eka
bitten
ara
fender
nausea
bumped
kris
banquet
comrades
detector
persisted
##llan
adjustment
endowed
cinemas
##shot
sellers
##uman
peek
epa
kindly
neglect
simpsons
talon
mausoleum
runaway
hangul
lookout
##cic
rewards
coughed
acquainted
chloride
##ald
quicker
accordion
neolithic
##qa
artemis
coefficient
lenny
pandora
tx
##xed
ecstasy
litter
segunda
chairperson
gemma
hiss
rumor
vow
nasal
antioch
compensate
patiently
transformers
##eded
judo
morrow
penis
posthumous
philips
bandits
husbands
denote
flaming
##any
##phones
langley
yorker
1760
walters
##uo
##kle
gubernatorial
fatty
samsung
leroy
outlaw
##nine
unpublished
poole
jakob
##ᵢ
##ₙ
crete
distorted
superiority
##dhi
intercept
crust
mig
claus
crashes
positioning
188
stallion
301
frontal
armistice
##estinal
elton
aj
encompassing
camel
commemorated
malaria
woodward
calf
cigar
penetrate
##oso
willard
##rno
##uche
illustrate
amusing
convergence
noteworthy
##lma
##rva
journeys
realise
manfred
##sable
410
##vocation
hearings
fiance
##posed
educators
provoked
adjusting
##cturing
modular
stockton
paterson
vlad
rejects
electors
selena
maureen
##tres
uber
##rce
swirled
##num
proportions
nanny
pawn
naturalist
parma
apostles
awoke
ethel
wen
##bey
monsoon
overview
##inating
mccain
rendition
risky
adorned
##ih
equestrian
germain
nj
conspicuous
confirming
##yoshi
shivering
##imeter
milestone
rumours
flinched
bounds
smacked
token
##bei
lectured
automobiles
##shore
impacted
##iable
nouns
nero
##leaf
ismail
prostitute
trams
##lace
bridget
sud
stimulus
impressions
reins
revolves
##oud
##gned
giro
honeymoon
##swell
criterion
##sms
##uil
libyan
prefers
##osition
211
preview
sucks
accusation
bursts
metaphor
diffusion
tolerate
faye
betting
cinematographer
liturgical
specials
bitterly
humboldt
##ckle
flux
rattled
##itzer
archaeologists
odor
authorised
marshes
discretion
##ов
alarmed
archaic
inverse
##leton
explorers
##pine
drummond
tsunami
woodlands
##minate
##tland
booklet
insanity
owning
insert
crafted
calculus
##tore
receivers
##bt
stung
##eca
##nched
prevailing
travellers
eyeing
lila
graphs
##borne
178
julien
##won
morale
adaptive
therapist
erica
cw
libertarian
bowman
pitches
vita
##ional
crook
##ads
##entation
caledonia
mutiny
##sible
1840s
automation
##ß
flock
##pia
ironic
pathology
##imus
remarried
##22
joker
withstand
energies
##att
shropshire
hostages
madeleine
tentatively
conflicting
mateo
recipes
euros
ol
mercenaries
nico
##ndon
albuquerque
augmented
mythical
bel
freud
##child
cough
##lica
365
freddy
lillian
genetically
nuremberg
calder
209
bonn
outdoors
paste
suns
urgency
vin
restraint
tyson
##cera
##selle
barrage
bethlehem
kahn
##par
mounts
nippon
barony
happier
ryu
makeshift
sheldon
blushed
castillo
barking
listener
taped
bethel
fluent
headlines
pornography
rum
disclosure
sighing
mace
doubling
gunther
manly
##plex
rt
interventions
physiological
forwards
emerges
##tooth
##gny
compliment
rib
recession
visibly
barge
faults
connector
exquisite
prefect
##rlin
patio
##cured
elevators
brandt
italics
pena
173
wasp
satin
ea
botswana
graceful
respectable
##jima
##rter
##oic
franciscan
generates
##dl
alfredo
disgusting
##olate
##iously
sherwood
warns
cod
promo
cheryl
sino
##ة
##escu
twitch
##zhi
brownish
thom
ortiz
##dron
densely
##beat
carmel
reinforce
##bana
187
anastasia
downhill
vertex
contaminated
remembrance
harmonic
homework
##sol
fiancee
gears
olds
angelica
loft
ramsay
quiz
colliery
sevens
##cape
autism
##hil
walkway
##boats
ruben
abnormal
ounce
khmer
##bbe
zachary
bedside
morphology
punching
##olar
sparrow
convinces
##35
hewitt
queer
remastered
rods
mabel
solemn
notified
lyricist
symmetric
##xide
174
encore
passports
wildcats
##uni
baja
##pac
mildly
##ease
bleed
commodity
mounds
glossy
orchestras
##omo
damian
prelude
ambitions
##vet
awhile
remotely
##aud
asserts
imply
##iques
distinctly
modelling
remedy
##dded
windshield
dani
xiao
##endra
audible
powerplant
1300
invalid
elemental
acquisitions
##hala
immaculate
libby
plata
smuggling
ventilation
denoted
minh
##morphism
430
differed
dion
kelley
lore
mocking
sabbath
spikes
hygiene
drown
runoff
stylized
tally
liberated
aux
interpreter
righteous
aba
siren
reaper
pearce
millie
##cier
##yra
gaius
##iso
captures
##ttering
dorm
claudio
##sic
benches
knighted
blackness
##ored
discount
fumble
oxidation
routed
##ς
novak
perpendicular
spoiled
fracture
splits
##urt
pads
topology
##cats
axes
fortunate
offenders
protestants
esteem
221
broadband
convened
frankly
hound
prototypes
isil
facilitated
keel
##sher
sahara
awaited
bubba
orb
prosecutors
186
hem
520
##xing
relaxing
remnant
romney
sorted
slalom
stefano
ulrich
##active
exemption
folder
pauses
foliage
hitchcock
epithet
204
criticisms
##aca
ballistic
brody
hinduism
chaotic
youths
equals
##pala
pts
thicker
analogous
capitalist
improvised
overseeing
sinatra
ascended
beverage
##tl
straightforward
##kon
curran
##west
bois
325
induce
surveying
emperors
sax
unpopular
##kk
cartoonist
fused
##mble
unto
##yuki
localities
##cko
##ln
darlington
slain
academie
lobbying
sediment
puzzles
##grass
defiance
dickens
manifest
tongues
alumnus
arbor
coincide
184
appalachian
mustafa
examiner
cabaret
traumatic
yves
bracelet
draining
heroin
magnum
baths
odessa
consonants
mitsubishi
##gua
kellan
vaudeville
##fr
joked
null
straps
probation
##ław
ceded
interfaces
##pas
##zawa
blinding
viet
224
rothschild
museo
640
huddersfield
##vr
tactic
##storm
brackets
dazed
incorrectly
##vu
reg
glazed
fearful
manifold
benefited
irony
##sun
stumbling
##rte
willingness
balkans
mei
wraps
##aba
injected
##lea
gu
syed
harmless
##hammer
bray
takeoff
poppy
timor
cardboard
astronaut
purdue
weeping
southbound
cursing
stalls
diagonal
##neer
lamar
bryce
comte
weekdays
harrington
##uba
negatively
##see
lays
grouping
##cken
##henko
affirmed
halle
modernist
##lai
hodges
smelling
aristocratic
baptized
dismiss
justification
oilers
##now
coupling
qin
snack
healer
##qing
gardener
layla
battled
formulated
stephenson
gravitational
##gill
##jun
1768
granny
coordinating
suites
##cd
##ioned
monarchs
##cote
##hips
sep
blended
apr
barrister
deposition
fia
mina
policemen
paranoid
##pressed
churchyard
covert
crumpled
creep
abandoning
tr
transmit
conceal
barr
understands
readiness
spire
##cology
##enia
##erry
610
startling
unlock
vida
bowled
slots
##nat
##islav
spaced
trusting
admire
rig
##ink
slack
##70
mv
207
casualty
##wei
classmates
##odes
##rar
##rked
amherst
furnished
evolve
foundry
menace
mead
##lein
flu
wesleyan
##kled
monterey
webber
##vos
wil
##mith
##на
bartholomew
justices
restrained
##cke
amenities
191
mediated
sewage
trenches
ml
mainz
##thus
1800s
##cula
##inski
caine
bonding
213
converts
spheres
superseded
marianne
crypt
sweaty
ensign
historia
##br
spruce
##post
##ask
forks
thoughtfully
yukon
pamphlet
ames
##uter
karma
##yya
bryn
negotiation
sighs
incapable
##mbre
##ntial
actresses
taft
##mill
luce
prevailed
##amine
1773
motionless
envoy
testify
investing
sculpted
instructors
provence
kali
cullen
horseback
##while
goodwin
##jos
gaa
norte
##ldon
modify
wavelength
abd
214
skinned
sprinter
forecast
scheduling
marries
squared
tentative
##chman
boer
##isch
bolts
swap
fisherman
assyrian
impatiently
guthrie
martins
murdoch
194
tanya
nicely
dolly
lacy
med
##45
syn
decks
fashionable
millionaire
##ust
surfing
##ml
##ision
heaved
tammy
consulate
attendees
routinely
197
fuse
saxophonist
backseat
malaya
##lord
scowl
tau
##ishly
193
sighted
steaming
##rks
303
911
##holes
##hong
ching
##wife
bless
conserved
jurassic
stacey
unix
zion
chunk
rigorous
blaine
198
peabody
slayer
dismay
brewers
nz
##jer
det
##glia
glover
postwar
int
penetration
sylvester
imitation
vertically
airlift
heiress
knoxville
viva
##uin
390
macon
##rim
##fighter
##gonal
janice
##orescence
##wari
marius
belongings
leicestershire
196
blanco
inverted
preseason
sanity
sobbing
##due
##elt
##dled
collingwood
regeneration
flickering
shortest
##mount
##osi
feminism
##lat
sherlock
cabinets
fumbled
northbound
precedent
snaps
##mme
researching
##akes
guillaume
insights
manipulated
vapor
neighbour
sap
gangster
frey
f1
stalking
scarcely
callie
barnett
tendencies
audi
doomed
assessing
slung
panchayat
ambiguous
bartlett
##etto
distributing
violating
wolverhampton
##hetic
swami
histoire
##urus
liable
pounder
groin
hussain
larsen
popping
surprises
##atter
vie
curt
##station
mute
relocate
musicals
authorization
richter
##sef
immortality
tna
bombings
##press
deteriorated
yiddish
##acious
robbed
colchester
cs
pmid
ao
verified
balancing
apostle
swayed
recognizable
oxfordshire
retention
nottinghamshire
contender
judd
invitational
shrimp
uhf
##icient
cleaner
longitudinal
tanker
##mur
acronym
broker
koppen
sundance
suppliers
##gil
4000
clipped
fuels
petite
##anne
landslide
helene
diversion
populous
landowners
auspices
melville
quantitative
##xes
ferries
nicky
##llus
doo
haunting
roche
carver
downed
unavailable
##pathy
approximation
hiroshima
##hue
garfield
valle
comparatively
keyboardist
traveler
##eit
congestion
calculating
subsidiaries
##bate
serb
modernization
fairies
deepened
ville
averages
##lore
inflammatory
tonga
##itch
co₂
squads
##hea
gigantic
serum
enjoyment
retailer
verona
35th
cis
##phobic
magna
technicians
##vati
arithmetic
##sport
levin
##dation
amtrak
chow
sienna
##eyer
backstage
entrepreneurship
##otic
learnt
tao
##udy
worcestershire
formulation
baggage
hesitant
bali
sabotage
##kari
barren
enhancing
murmur
pl
freshly
putnam
syntax
aces
medicines
resentment
bandwidth
##sier
grins
chili
guido
##sei
framing
implying
gareth
lissa
genevieve
pertaining
admissions
geo
thorpe
proliferation
sato
bela
analyzing
parting
##gor
awakened
##isman
huddled
secrecy
##kling
hush
gentry
540
dungeons
##ego
coasts
##utz
sacrificed
##chule
landowner
mutually
prevalence
programmer
adolescent
disrupted
seaside
gee
trusts
vamp
georgie
##nesian
##iol
schedules
sindh
##market
etched
hm
sparse
bey
beaux
scratching
gliding
unidentified
216
collaborating
gems
jesuits
oro
accumulation
shaping
mbe
anal
##xin
231
enthusiasts
newscast
##egan
janata
dewey
parkinson
179
ankara
biennial
towering
dd
inconsistent
950
##chet
thriving
terminate
cabins
furiously
eats
advocating
donkey
marley
muster
phyllis
leiden
##user
grassland
glittering
iucn
loneliness
217
memorandum
armenians
##ddle
popularized
rhodesia
60s
lame
##illon
sans
bikini
header
orbits
##xx
##finger
##ulator
sharif
spines
biotechnology
strolled
naughty
yates
##wire
fremantle
milo
##mour
abducted
removes
##atin
humming
wonderland
##chrome
##ester
hume
pivotal
##rates
armand
grams
believers
elector
rte
apron
bis
scraped
##yria
endorsement
initials
##llation
eps
dotted
hints
buzzing
emigration
nearer
##tom
indicators
##ulu
coarse
neutron
protectorate
##uze
directional
exploits
pains
loire
1830s
proponents
guggenheim
rabbits
ritchie
305
hectare
inputs
hutton
##raz
verify
##ako
boilers
longitude
##lev
skeletal
yer
emilia
citrus
compromised
##gau
pokemon
prescription
paragraph
eduard
cadillac
attire
categorized
kenyan
weddings
charley
##bourg
entertain
monmouth
##lles
nutrients
davey
mesh
incentive
practised
ecosystems
kemp
subdued
overheard
##rya
bodily
maxim
##nius
apprenticeship
ursula
##fight
lodged
rug
silesian
unconstitutional
patel
inspected
coyote
unbeaten
##hak
34th
disruption
convict
parcel
##cl
##nham
collier
implicated
mallory
##iac
##lab
susannah
winkler
##rber
shia
phelps
sediments
graphical
robotic
##sner
adulthood
mart
smoked
##isto
kathryn
clarified
##aran
divides
convictions
oppression
pausing
burying
##mt
federico
mathias
eileen
##tana
kite
hunched
##acies
189
##atz
disadvantage
liza
kinetic
greedy
paradox
yokohama
dowager
trunks
ventured
##gement
gupta
vilnius
olaf
##thest
crimean
hopper
##ej
progressively
arturo
mouthed
arrondissement
##fusion
rubin
simulcast
oceania
##orum
##stra
##rred
busiest
intensely
navigator
cary
##vine
##hini
##bies
fife
rowe
rowland
posing
insurgents
shafts
lawsuits
activate
conor
inward
culturally
garlic
265
##eering
eclectic
##hui
##kee
##nl
furrowed
vargas
meteorological
rendezvous
##aus
culinary
commencement
##dition
quota
##notes
mommy
salaries
overlapping
mule
##iology
##mology
sums
wentworth
##isk
##zione
mainline
subgroup
##illy
hack
plaintiff
verdi
bulb
differentiation
engagements
multinational
supplemented
bertrand
caller
regis
##naire
##sler
##arts
##imated
blossom
propagation
kilometer
viaduct
vineyards
##uate
beckett
optimization
golfer
songwriters
seminal
semitic
thud
volatile
evolving
ridley
##wley
trivial
distributions
scandinavia
jiang
##ject
wrestled
insistence
##dio
emphasizes
napkin
##ods
adjunct
rhyme
##ricted
##eti
hopeless
surrounds
tremble
32nd
smoky
##ntly
oils
medicinal
padded
steer
wilkes
219
255
concessions
hue
uniquely
blinded
landon
yahoo
##lane
hendrix
commemorating
dex
specify
chicks
##ggio
intercity
1400
morley
##torm
highlighting
##oting
pang
oblique
stalled
##liner
flirting
newborn
1769
bishopric
shaved
232
currie
##ush
dharma
spartan
##ooped
favorites
smug
novella
sirens
abusive
creations
espana
##lage
paradigm
semiconductor
sheen
##rdo
##yen
##zak
nrl
renew
##pose
##tur
adjutant
marches
norma
##enity
ineffective
weimar
grunt
##gat
lordship
plotting
expenditure
infringement
lbs
refrain
av
mimi
mistakenly
postmaster
1771
##bara
ras
motorsports
tito
199
subjective
##zza
bully
stew
##kaya
prescott
1a
##raphic
##zam
bids
styling
paranormal
reeve
sneaking
exploding
katz
akbar
migrant
syllables
indefinitely
##ogical
destroys
replaces
applause
##phine
pest
##fide
218
articulated
bertie
##thing
##cars
##ptic
courtroom
crowley
aesthetics
cummings
tehsil
hormones
titanic
dangerously
##ibe
stadion
jaenelle
auguste
ciudad
##chu
mysore
partisans
##sio
lucan
philipp
##aly
debating
henley
interiors
##rano
##tious
homecoming
beyonce
usher
henrietta
prepares
weeds
##oman
ely
plucked
##pire
##dable
luxurious
##aq
artifact
password
pasture
juno
maddy
minsk
##dder
##ologies
##rone
assessments
martian
royalist
1765
examines
##mani
##rge
nino
223
parry
scooped
relativity
##eli
##uting
##cao
congregational
noisy
traverse
##agawa
strikeouts
nickelodeon
obituary
transylvania
binds
depictions
polk
trolley
##yed
##lard
breeders
##under
dryly
hokkaido
1762
strengths
stacks
bonaparte
connectivity
neared
prostitutes
stamped
anaheim
gutierrez
sinai
##zzling
bram
fresno
madhya
##86
proton
##lena
##llum
##phon
reelected
wanda
##anus
##lb
ample
distinguishing
##yler
grasping
sermons
tomato
bland
stimulation
avenues
##eux
spreads
scarlett
fern
pentagon
assert
baird
chesapeake
ir
calmed
distortion
fatalities
##olis
correctional
pricing
##astic
##gina
prom
dammit
ying
collaborate
##chia
welterweight
33rd
pointer
substitution
bonded
umpire
communicating
multitude
paddle
##obe
federally
intimacy
##insky
betray
ssr
##lett
##lean
##lves
##therapy
airbus
##tery
functioned
ud
bearer
biomedical
netflix
##hire
##nca
condom
brink
ik
##nical
macy
##bet
flap
gma
experimented
jelly
lavender
##icles
##ulia
munro
##mian
##tial
rye
##rle
60th
gigs
hottest
rotated
predictions
fuji
bu
##erence
##omi
barangay
##fulness
##sas
clocks
##rwood
##liness
cereal
roe
wight
decker
uttered
babu
onion
xml
forcibly
##df
petra
sarcasm
hartley
peeled
storytelling
##42
##xley
##ysis
##ffa
fibre
kiel
auditor
fig
harald
greenville
##berries
geographically
nell
quartz
##athic
cemeteries
##lr
crossings
nah
holloway
reptiles
chun
sichuan
snowy
660
corrections
##ivo
zheng
ambassadors
blacksmith
fielded
fluids
hardcover
turnover
medications
melvin
academies
##erton
ro
roach
absorbing
spaniards
colton
##founded
outsider
espionage
kelsey
245
edible
##ulf
dora
establishes
##sham
##tries
contracting
##tania
cinematic
costello
nesting
##uron
connolly
duff
##nology
mma
##mata
fergus
sexes
gi
optics
spectator
woodstock
banning
##hee
##fle
differentiate
outfielder
refinery
226
312
gerhard
horde
lair
drastically
##udi
landfall
##cheng
motorsport
odi
##achi
predominant
quay
skins
##ental
edna
harshly
complementary
murdering
##aves
wreckage
##90
ono
outstretched
lennox
munitions
galen
reconcile
470
scalp
bicycles
gillespie
questionable
rosenberg
guillermo
hostel
jarvis
kabul
volvo
opium
yd
##twined
abuses
decca
outpost
##cino
sensible
neutrality
##64
ponce
anchorage
atkins
turrets
inadvertently
disagree
libre
vodka
reassuring
weighs
##yal
glide
jumper
ceilings
repertory
outs
stain
##bial
envy
##ucible
smashing
heightened
policing
hyun
mixes
lai
prima
##ples
celeste
##bina
lucrative
intervened
kc
manually
##rned
stature
staffed
bun
bastards
nairobi
priced
##auer
thatcher
##kia
tripped
comune
##ogan
##pled
brasil
incentives
emanuel
hereford
musica
##kim
benedictine
biennale
##lani
eureka
gardiner
rb
knocks
sha
##ael
##elled
##onate
efficacy
ventura
masonic
sanford
maize
leverage
##feit
capacities
santana
##aur
novelty
vanilla
##cter
##tour
benin
##oir
##rain
neptune
drafting
tallinn
##cable
humiliation
##boarding
schleswig
fabian
bernardo
liturgy
spectacle
sweeney
pont
routledge
##tment
cosmos
ut
hilt
sleek
universally
##eville
##gawa
typed
##dry
favors
allegheny
glaciers
##rly
recalling
aziz
##log
parasite
requiem
auf
##berto
##llin
illumination
##breaker
##issa
festivities
bows
govern
vibe
vp
333
sprawled
larson
pilgrim
bwf
leaping
##rts
##ssel
alexei
greyhound
hoarse
##dler
##oration
seneca
##cule
gaping
##ulously
##pura
cinnamon
##gens
##rricular
craven
fantasies
houghton
engined
reigned
dictator
supervising
##oris
bogota
commentaries
unnatural
fingernails
spirituality
tighten
##tm
canadiens
protesting
intentional
cheers
sparta
##ytic
##iere
##zine
widen
belgarath
controllers
dodd
iaaf
navarre
##ication
defect
squire
steiner
whisky
##mins
560
inevitably
tome
##gold
chew
##uid
##lid
elastic
##aby
streaked
alliances
jailed
regal
##ined
##phy
czechoslovak
narration
absently
##uld
bluegrass
guangdong
quran
criticizing
hose
hari
##liest
##owa
skier
streaks
deploy
##lom
raft
bose
dialed
huff
##eira
haifa
simplest
bursting
endings
ib
sultanate
##titled
franks
whitman
ensures
sven
##ggs
collaborators
forster
organising
ui
banished
napier
injustice
teller
layered
thump
##otti
roc
battleships
evidenced
fugitive
sadie
robotics
##roud
equatorial
geologist
##iza
yielding
##bron
##sr
internationale
mecca
##diment
sbs
skyline
toad
uploaded
reflective
undrafted
lal
leafs
bayern
##dai
lakshmi
shortlisted
##stick
##wicz
camouflage
donate
af
christi
lau
##acio
disclosed
nemesis
1761
assemble
straining
northamptonshire
tal
##asi
bernardino
premature
heidi
42nd
coefficients
galactic
reproduce
buzzed
sensations
zionist
monsieur
myrtle
##eme
archery
strangled
musically
viewpoint
antiquities
bei
trailers
seahawks
cured
pee
preferring
tasmanian
lange
sul
##mail
##working
colder
overland
lucivar
massey
gatherings
haitian
##smith
disapproval
flaws
##cco
##enbach
1766
npr
##icular
boroughs
creole
forums
techno
1755
dent
abdominal
streetcar
##eson
##stream
procurement
gemini
predictable
##tya
acheron
christoph
feeder
fronts
vendor
bernhard
jammu
tumors
slang
##uber
goaltender
twists
curving
manson
vuelta
mer
peanut
confessions
pouch
unpredictable
allowance
theodor
vascular
##factory
bala
authenticity
metabolic
coughing
nanjing
##cea
pembroke
##bard
splendid
36th
ff
hourly
##ahu
elmer
handel
##ivate
awarding
thrusting
dl
experimentation
##hesion
##46
caressed
entertained
steak
##rangle
biologist
orphans
baroness
oyster
stepfather
##dridge
mirage
reefs
speeding
##31
barons
1764
227
inhabit
preached
repealed
##tral
honoring
boogie
captives
administer
johanna
##imate
gel
suspiciously
1767
sobs
##dington
backbone
hayward
garry
##folding
##nesia
maxi
##oof
##ppe
ellison
galileo
##stand
crimea
frenzy
amour
bumper
matrices
natalia
baking
garth
palestinians
##grove
smack
conveyed
ensembles
gardening
##manship
##rup
##stituting
1640
harvesting
topography
jing
shifters
dormitory
##carriage
##lston
ist
skulls
##stadt
dolores
jewellery
sarawak
##wai
##zier
fences
christy
confinement
tumbling
credibility
fir
stench
##bria
##plication
##nged
##sam
virtues
##belt
marjorie
pba
##eem
##made
celebrates
schooner
agitated
barley
fulfilling
anthropologist
##pro
restrict
novi
regulating
##nent
padres
##rani
##hesive
loyola
tabitha
milky
olson
proprietor
crambidae
guarantees
intercollegiate
ljubljana
hilda
##sko
ignorant
hooded
##lts
sardinia
##lidae
##vation
frontman
privileged
witchcraft
##gp
jammed
laude
poking
##than
bracket
amazement
yunnan
##erus
maharaja
linnaeus
264
commissioning
milano
peacefully
##logies
akira
rani
regulator
##36
grasses
##rance
luzon
crows
compiler
gretchen
seaman
edouard
tab
buccaneers
ellington
hamlets
whig
socialists
##anto
directorial
easton
mythological
##kr
##vary
rhineland
semantic
taut
dune
inventions
succeeds
##iter
replication
branched
##pired
jul
prosecuted
kangaroo
penetrated
##avian
middlesbrough
doses
bleak
madam
predatory
relentless
##vili
reluctance
##vir
hailey
crore
silvery
1759
monstrous
swimmers
transmissions
hawthorn
informing
##eral
toilets
caracas
crouch
kb
##sett
295
cartel
hadley
##aling
alexia
yvonne
##biology
cinderella
eton
superb
blizzard
stabbing
industrialist
maximus
##gm
##orus
groves
maud
clade
oversized
comedic
##bella
rosen
nomadic
fulham
montane
beverages
galaxies
redundant
swarm
##rot
##folia
##llis
buckinghamshire
fen
bearings
bahadur
##rom
gilles
phased
dynamite
faber
benoit
vip
##ount
##wd
booking
fractured
tailored
anya
spices
westwood
cairns
auditions
inflammation
steamed
##rocity
##acion
##urne
skyla
thereof
watford
torment
archdeacon
transforms
lulu
demeanor
fucked
serge
##sor
mckenna
minas
entertainer
##icide
caress
originate
residue
##sty
1740
##ilised
##org
beech
##wana
subsidies
##ghton
emptied
gladstone
ru
firefighters
voodoo
##rcle
het
nightingale
tamara
edmond
ingredient
weaknesses
silhouette
285
compatibility
withdrawing
hampson
##mona
anguish
giggling
##mber
bookstore
##jiang
southernmost
tilting
##vance
bai
economical
rf
briefcase
dreadful
hinted
projections
shattering
totaling
##rogate
analogue
indicted
periodical
fullback
##dman
haynes
##tenberg
##ffs
##ishment
1745
thirst
stumble
penang
vigorous
##ddling
##kor
##lium
octave
##ove
##enstein
##inen
##ones
siberian
##uti
cbn
repeal
swaying
##vington
khalid
tanaka
unicorn
otago
plastered
lobe
riddle
##rella
perch
##ishing
croydon
filtered
graeme
tripoli
##ossa
crocodile
##chers
sufi
mined
##tung
inferno
lsu
##phi
swelled
utilizes
£2
cale
periodicals
styx
hike
informally
coop
lund
##tidae
ala
hen
qui
transformations
disposed
sheath
chickens
##cade
fitzroy
sas
silesia
unacceptable
odisha
1650
sabrina
pe
spokane
ratios
athena
massage
shen
dilemma
##drum
##riz
##hul
corona
doubtful
niall
##pha
##bino
fines
cite
acknowledging
bangor
ballard
bathurst
##resh
huron
mustered
alzheimer
garments
kinase
tyre
warship
##cp
flashback
pulmonary
braun
cheat
kamal
cyclists
constructions
grenades
ndp
traveller
excuses
stomped
signalling
trimmed
futsal
mosques
relevance
##wine
wta
##23
##vah
##lter
hoc
##riding
optimistic
##´s
deco
sim
interacting
rejecting
moniker
waterways
##ieri
##oku
mayors
gdansk
outnumbered
pearls
##ended
##hampton
fairs
totals
dominating
262
notions
stairway
compiling
pursed
commodities
grease
yeast
##jong
carthage
griffiths
residual
amc
contraction
laird
sapphire
##marine
##ivated
amalgamation
dissolve
inclination
lyle
packaged
altitudes
suez
canons
graded
lurched
narrowing
boasts
guise
wed
enrico
##ovsky
rower
scarred
bree
cub
iberian
protagonists
bargaining
proposing
trainers
voyages
vans
fishes
##aea
##ivist
##verance
encryption
artworks
kazan
sabre
cleopatra
hepburn
rotting
supremacy
mecklenburg
##brate
burrows
hazards
outgoing
flair
organizes
##ctions
scorpion
##usions
boo
234
chevalier
dunedin
slapping
##34
ineligible
pensions
##38
##omic
manufactures
emails
bismarck
238
weakening
blackish
ding
mcgee
quo
##rling
northernmost
xx
manpower
greed
sampson
clicking
##ange
##horpe
##inations
##roving
torre
##eptive
##moral
symbolism
38th
asshole
meritorious
outfits
splashed
biographies
sprung
astros
##tale
302
737
filly
raoul
nw
tokugawa
linden
clubhouse
##apa
tracts
romano
##pio
putin
tags
##note
chained
dickson
gunshot
moe
gunn
rashid
##tails
zipper
##bas
##nea
contrasted
##ply
##udes
plum
pharaoh
##pile
aw
comedies
ingrid
sandwiches
subdivisions
1100
mariana
nokia
kamen
hz
delaney
veto
herring
##words
possessive
outlines
##roup
siemens
stairwell
rc
gallantry
messiah
palais
yells
233
zeppelin
##dm
bolivar
##cede
smackdown
mckinley
##mora
##yt
muted
geologic
finely
unitary
avatar
hamas
maynard
rees
bog
contrasting
##rut
liv
chico
disposition
pixel
##erate
becca
dmitry
yeshiva
narratives
##lva
##ulton
mercenary
sharpe
tempered
navigate
stealth
amassed
keynes
##lini
untouched
##rrie
havoc
lithium
##fighting
abyss
graf
southward
wolverine
balloons
implements
ngos
transitions
##icum
ambushed
concacaf
dormant
economists
##dim
costing
csi
rana
universite
boulders
verity
##llon
collin
mellon
misses
cypress
fluorescent
lifeless
spence
##ulla
crewe
shepard
pak
revelations
##م
jolly
gibbons
paw
##dro
##quel
freeing
##test
shack
fries
palatine
##51
##hiko
accompaniment
cruising
recycled
##aver
erwin
sorting
synthesizers
dyke
realities
sg
strides
enslaved
wetland
##ghan
competence
gunpowder
grassy
maroon
reactors
objection
##oms
carlson
gearbox
macintosh
radios
shelton
##sho
clergyman
prakash
254
mongols
trophies
oricon
228
stimuli
twenty20
cantonese
cortes
mirrored
##saurus
bhp
cristina
melancholy
##lating
enjoyable
nuevo
##wny
downfall
schumacher
##ind
banging
lausanne
rumbled
paramilitary
reflex
ax
amplitude
migratory
##gall
##ups
midi
barnard
lastly
sherry
##hp
##nall
keystone
##kra
carleton
slippery
##53
coloring
foe
socket
otter
##rgos
mats
##tose
consultants
bafta
bison
topping
##km
490
primal
abandonment
transplant
atoll
hideous
mort
pained
reproduced
tae
howling
##turn
unlawful
billionaire
hotter
poised
lansing
##chang
dinamo
retro
messing
nfc
domesday
##mina
blitz
timed
##athing
##kley
ascending
gesturing
##izations
signaled
tis
chinatown
mermaid
savanna
jameson
##aint
catalina
##pet
##hers
cochrane
cy
chatting
##kus
alerted
computation
mused
noelle
majestic
mohawk
campo
octagonal
##sant
##hend
241
aspiring
##mart
comprehend
iona
paralyzed
shimmering
swindon
rhone
##eley
reputed
configurations
pitchfork
agitation
francais
gillian
lipstick
##ilo
outsiders
pontifical
resisting
bitterness
sewer
rockies
##edd
##ucher
misleading
1756
exiting
galloway
##nging
risked
##heart
246
commemoration
schultz
##rka
integrating
##rsa
poses
shrieked
##weiler
guineas
gladys
jerking
owls
goldsmith
nightly
penetrating
##unced
lia
##33
ignited
betsy
##aring
##thorpe
follower
vigorously
##rave
coded
kiran
knit
zoology
tbilisi
##28
##bered
repository
govt
deciduous
dino
growling
##bba
enhancement
unleashed
chanting
pussy
biochemistry
##eric
kettle
repression
toxicity
nrhp
##arth
##kko
##bush
ernesto
commended
outspoken
242
mca
parchment
sms
kristen
##aton
bisexual
raked
glamour
navajo
a2
conditioned
showcased
##hma
spacious
youthful
##esa
usl
appliances
junta
brest
layne
conglomerate
enchanted
chao
loosened
picasso
circulating
inspect
montevideo
##centric
##kti
piazza
spurred
##aith
bari
freedoms
poultry
stamford
lieu
##ect
indigo
sarcastic
bahia
stump
attach
dvds
frankenstein
lille
approx
scriptures
pollen
##script
nmi
overseen
##ivism
tides
proponent
newmarket
inherit
milling
##erland
centralized
##rou
distributors
credentials
drawers
abbreviation
##lco
##xon
downing
uncomfortably
ripe
##oes
erase
franchises
##ever
populace
##bery
##khar
decomposition
pleas
##tet
daryl
sabah
##stle
##wide
fearless
genie
lesions
annette
##ogist
oboe
appendix
nair
dripped
petitioned
maclean
mosquito
parrot
rpg
hampered
1648
operatic
reservoirs
##tham
irrelevant
jolt
summarized
##fp
medallion
##taff
##−
clawed
harlow
narrower
goddard
marcia
bodied
fremont
suarez
altering
tempest
mussolini
porn
##isms
sweetly
oversees
walkers
solitude
grimly
shrines
hk
ich
supervisors
hostess
dietrich
legitimacy
brushes
expressive
##yp
dissipated
##rse
localized
systemic
##nikov
gettysburg
##js
##uaries
dialogues
muttering
251
housekeeper
sicilian
discouraged
##frey
beamed
kaladin
halftime
kidnap
##amo
##llet
1754
synonymous
depleted
instituto
insulin
reprised
##opsis
clashed
##ctric
interrupting
radcliffe
insisting
medici
1715
ejected
playfully
turbulent
##47
starvation
##rini
shipment
rebellious
petersen
verification
merits
##rified
cakes
##charged
1757
milford
shortages
spying
fidelity
##aker
emitted
storylines
harvested
seismic
##iform
cheung
kilda
theoretically
barbie
lynx
##rgy
##tius
goblin
mata
poisonous
##nburg
reactive
residues
obedience
##евич
conjecture
##rac
401
hating
sixties
kicker
moaning
motown
##bha
emancipation
neoclassical
##hering
consoles
ebert
professorship
##tures
sustaining
assaults
obeyed
affluent
incurred
tornadoes
##eber
##zow
emphasizing
highlanders
cheated
helmets
##ctus
internship
terence
bony
executions
legislators
berries
peninsular
tinged
##aco
1689
amplifier
corvette
ribbons
lavish
pennant
##lander
worthless
##chfield
##forms
mariano
pyrenees
expenditures
##icides
chesterfield
mandir
tailor
39th
sergey
nestled
willed
aristocracy
devotees
goodnight
raaf
rumored
weaponry
remy
appropriations
harcourt
burr
riaa
##lence
limitation
unnoticed
guo
soaking
swamps
##tica
collapsing
tatiana
descriptive
brigham
psalm
##chment
maddox
##lization
patti
caliph
##aja
akron
injuring
serra
##ganj
basins
##sari
astonished
launcher
##church
hilary
wilkins
sewing
##sf
stinging
##fia
##ncia
underwood
startup
##ition
compilations
vibrations
embankment
jurist
##nity
bard
juventus
groundwater
kern
palaces
helium
boca
cramped
marissa
soto
##worm
jae
princely
##ggy
faso
bazaar
warmly
##voking
229
pairing
##lite
##grate
##nets
wien
freaked
ulysses
rebirth
##alia
##rent
mummy
guzman
jimenez
stilled
##nitz
trajectory
tha
woken
archival
professions
##pts
##pta
hilly
shadowy
shrink
##bolt
norwood
glued
migrate
stereotypes
devoid
##pheus
625
evacuate
horrors
infancy
gotham
knowles
optic
downloaded
sachs
kingsley
parramatta
darryl
mor
##onale
shady
commence
confesses
kan
##meter
##placed
marlborough
roundabout
regents
frigates
io
##imating
gothenburg
revoked
carvings
clockwise
convertible
intruder
##sche
banged
##ogo
vicky
bourgeois
##mony
dupont
footing
##gum
pd
##real
buckle
yun
penthouse
sane
720
serviced
stakeholders
neumann
bb
##eers
comb
##gam
catchment
pinning
rallies
typing
##elles
forefront
freiburg
sweetie
giacomo
widowed
goodwill
worshipped
aspirations
midday
##vat
fishery
##trick
bournemouth
turk
243
hearth
ethanol
guadalajara
murmurs
sl
##uge
afforded
scripted
##hta
wah
##jn
coroner
translucent
252
memorials
puck
progresses
clumsy
##race
315
candace
recounted
##27
##slin
##uve
filtering
##mac
howl
strata
heron
leveled
##ays
dubious
##oja
##т
##wheel
citations
exhibiting
##laya
##mics
##pods
turkic
##lberg
injunction
##ennial
##mit
antibodies
##44
organise
##rigues
cardiovascular
cushion
inverness
##zquez
dia
cocoa
sibling
##tman
##roid
expanse
feasible
tunisian
algiers
##relli
rus
bloomberg
dso
westphalia
bro
tacoma
281
downloads
##ours
konrad
duran
##hdi
continuum
jett
compares
legislator
secession
##nable
##gues
##zuka
translating
reacher
##gley
##ła
aleppo
##agi
tc
orchards
trapping
linguist
versatile
drumming
postage
calhoun
superiors
##mx
barefoot
leary
##cis
ignacio
alfa
kaplan
##rogen
bratislava
mori
##vot
disturb
haas
313
cartridges
gilmore
radiated
salford
tunic
hades
##ulsive
archeological
delilah
magistrates
auditioned
brewster
charters
empowerment
blogs
cappella
dynasties
iroquois
whipping
##krishna
raceway
truths
myra
weaken
judah
mcgregor
##horse
mic
refueling
37th
burnley
bosses
markus
premio
query
##gga
dunbar
##economic
darkest
lyndon
sealing
commendation
reappeared
##mun
addicted
ezio
slaughtered
satisfactory
shuffle
##eves
##thic
##uj
fortification
warrington
##otto
resurrected
fargo
mane
##utable
##lei
##space
foreword
ox
##aris
##vern
abrams
hua
##mento
sakura
##alo
uv
sentimental
##skaya
midfield
##eses
sturdy
scrolls
macleod
##kyu
entropy
##lance
mitochondrial
cicero
excelled
thinner
convoys
perceive
##oslav
##urable
systematically
grind
burkina
287
##tagram
ops
##aman
guantanamo
##cloth
##tite
forcefully
wavy
##jou
pointless
##linger
##tze
layton
portico
superficial
clerical
outlaws
##hism
burials
muir
##inn
creditors
hauling
rattle
##leg
calais
monde
archers
reclaimed
dwell
wexford
hellenic
falsely
remorse
##tek
dough
furnishings
##uttered
gabon
neurological
novice
##igraphy
contemplated
pulpit
nightstand
saratoga
##istan
documenting
pulsing
taluk
##firmed
busted
marital
##rien
disagreements
wasps
##yes
hodge
mcdonnell
mimic
fran
pendant
dhabi
musa
##nington
congratulations
argent
darrell
concussion
losers
regrets
thessaloniki
reversal
donaldson
hardwood
thence
achilles
ritter
##eran
demonic
jurgen
prophets
goethe
eki
classmate
buff
##cking
yank
irrational
##inging
perished
seductive
qur
sourced
##crat
##typic
mustard
ravine
barre
horizontally
characterization
phylogenetic
boise
##dit
##runner
##tower
brutally
intercourse
seduce
##bbing
fay
ferris
ogden
amar
nik
unarmed
##inator
evaluating
kyrgyzstan
sweetness
##lford
##oki
mccormick
meiji
notoriety
stimulate
disrupt
figuring
instructional
mcgrath
##zoo
groundbreaking
##lto
flinch
khorasan
agrarian
bengals
mixer
radiating
##sov
ingram
pitchers
nad
tariff
##cript
tata
##codes
##emi
##ungen
appellate
lehigh
##bled
##giri
brawl
duct
texans
##ciation
##ropolis
skipper
speculative
vomit
doctrines
stresses
253
davy
graders
whitehead
jozef
timely
cumulative
haryana
paints
appropriately
boon
cactus
##ales
##pid
dow
legions
##pit
perceptions
1730
picturesque
##yse
periphery
rune
wr
##aha
celtics
sentencing
whoa
##erin
confirms
variance
425
moines
mathews
spade
rave
m1
fronted
fx
blending
alleging
reared
##gl
237
##paper
grassroots
eroded
##free
##physical
directs
ordeal
##sław
accelerate
hacker
rooftop
##inia
lev
buys
cebu
devote
##lce
specialising
##ulsion
choreographed
repetition
warehouses
##ryl
paisley
tuscany
analogy
sorcerer
hash
huts
shards
descends
exclude
nix
chaplin
gaga
ito
vane
##drich
causeway
misconduct
limo
orchestrated
glands
jana
##kot
u2
##mple
##sons
branching
contrasts
scoop
longed
##virus
chattanooga
##75
syrup
cornerstone
##tized
##mind
##iaceae
careless
precedence
frescoes
##uet
chilled
consult
modelled
snatch
peat
##thermal
caucasian
humane
relaxation
spins
temperance
##lbert
occupations
lambda
hybrids
moons
mp3
##oese
247
rolf
societal
yerevan
ness
##ssler
befriended
mechanized
nominate
trough
boasted
cues
seater
##hom
bends
##tangle
conductors
emptiness
##lmer
eurasian
adriatic
tian
##cie
anxiously
lark
propellers
chichester
jock
ev
2a
##holding
credible
recounts
tori
loyalist
abduction
##hoot
##redo
nepali
##mite
ventral
tempting
##ango
##crats
steered
##wice
javelin
dipping
laborers
prentice
looming
titanium
##ː
badges
emir
tensor
##ntation
egyptians
rash
denies
hawthorne
lombard
showers
wehrmacht
dietary
trojan
##reus
welles
executing
horseshoe
lifeboat
##lak
elsa
infirmary
nearing
roberta
boyer
mutter
trillion
joanne
##fine
##oked
sinks
vortex
uruguayan
clasp
sirius
##block
accelerator
prohibit
sunken
byu
chronological
diplomats
ochreous
510
symmetrical
1644
maia
##tology
salts
reigns
atrocities
##ия
hess
bared
issn
##vyn
cater
saturated
##cycle
##isse
sable
voyager
dyer
yusuf
##inge
fountains
wolff
##39
##nni
engraving
rollins
atheist
ominous
##ault
herr
chariot
martina
strung
##fell
##farlane
horrific
sahib
gazes
saetan
erased
ptolemy
##olic
flushing
lauderdale
analytic
##ices
530
navarro
beak
gorilla
herrera
broom
guadalupe
raiding
sykes
311
bsc
deliveries
1720
invasions
carmichael
tajikistan
thematic
ecumenical
sentiments
onstage
##rians
##brand
##sume
catastrophic
flanks
molten
##arns
waller
aimee
terminating
##icing
alternately
##oche
nehru
printers
outraged
##eving
empires
template
banners
repetitive
za
##oise
vegetarian
##tell
guiana
opt
cavendish
lucknow
synthesized
##hani
##mada
finalized
##ctable
fictitious
mayoral
unreliable
##enham
embracing
peppers
rbis
##chio
##neo
inhibition
slashed
togo
orderly
embroidered
safari
salty
236
barron
benito
totaled
##dak
pubs
simulated
caden
devin
tolkien
momma
welding
sesame
##ept
gottingen
hardness
630
shaman
temeraire
620
adequately
pediatric
##kit
ck
assertion
radicals
composure
cadence
seafood
beaufort
lazarus
mani
warily
cunning
kurdistan
249
cantata
##kir
ares
##41
##clusive
nape
townland
geared
insulted
flutter
boating
violate
draper
dumping
malmo
##hh
##romatic
firearm
alta
bono
obscured
##clave
exceeds
panorama
unbelievable
##train
preschool
##essed
disconnected
installing
rescuing
secretaries
accessibility
##castle
##drive
##ifice
##film
bouts
slug
waterway
mindanao
##buro
##ratic
halves
##ل
calming
liter
maternity
adorable
bragg
electrification
mcc
##dote
roxy
schizophrenia
##body
munoz
kaye
whaling
239
mil
tingling
tolerant
##ago
unconventional
volcanoes
##finder
deportivo
##llie
robson
kaufman
neuroscience
wai
deportation
masovian
scraping
converse
##bh
hacking
bulge
##oun
administratively
yao
580
amp
mammoth
booster
claremont
hooper
nomenclature
pursuits
mclaughlin
melinda
##sul
catfish
barclay
substrates
taxa
zee
originals
kimberly
packets
padma
##ality
borrowing
ostensibly
solvent
##bri
##genesis
##mist
lukas
shreveport
veracruz
##ь
##lou
##wives
cheney
tt
anatolia
hobbs
##zyn
cyclic
radiant
alistair
greenish
siena
dat
independents
##bation
conform
pieter
hyper
applicant
bradshaw
spores
telangana
vinci
inexpensive
nuclei
322
jang
nme
soho
spd
##ign
cradled
receptionist
pow
##43
##rika
fascism
##ifer
experimenting
##ading
##iec
##region
345
jocelyn
maris
stair
nocturnal
toro
constabulary
elgin
##kker
msc
##giving
##schen
##rase
doherty
doping
sarcastically
batter
maneuvers
##cano
##apple
##gai
##git
intrinsic
##nst
##stor
1753
showtime
cafes
gasps
lviv
ushered
##thed
fours
restart
astonishment
transmitting
flyer
shrugs
##sau
intriguing
cones
dictated
mushrooms
medial
##kovsky
##elman
escorting
gaped
##26
godfather
##door
##sell
djs
recaptured
timetable
vila
1710
3a
aerodrome
mortals
scientology
##orne
angelina
mag
convection
unpaid
insertion
intermittent
lego
##nated
endeavor
kota
pereira
##lz
304
bwv
glamorgan
insults
agatha
fey
##cend
fleetwood
mahogany
protruding
steamship
zeta
##arty
mcguire
suspense
##sphere
advising
urges
##wala
hurriedly
meteor
gilded
inline
arroyo
stalker
##oge
excitedly
revered
##cure
earle
introductory
##break
##ilde
mutants
puff
pulses
reinforcement
##haling
curses
lizards
stalk
correlated
##fixed
fallout
macquarie
##unas
bearded
denton
heaving
802
##ocation
winery
assign
dortmund
##lkirk
everest
invariant
charismatic
susie
##elling
bled
lesley
telegram
sumner
bk
##ogen
##к
wilcox
needy
colbert
duval
##iferous
##mbled
allotted
attends
imperative
##hita
replacements
hawker
##inda
insurgency
##zee
##eke
casts
##yla
680
ives
transitioned
##pack
##powering
authoritative
baylor
flex
cringed
plaintiffs
woodrow
##skie
drastic
ape
aroma
unfolded
commotion
nt
preoccupied
theta
routines
lasers
privatization
wand
domino
ek
clenching
nsa
strategically
showered
bile
handkerchief
pere
storing
christophe
insulting
316
nakamura
romani
asiatic
magdalena
palma
cruises
stripping
405
konstantin
soaring
##berman
colloquially
forerunner
havilland
incarcerated
parasites
sincerity
##utus
disks
plank
saigon
##ining
corbin
homo
ornaments
powerhouse
##tlement
chong
fastened
feasibility
idf
morphological
usable
##nish
##zuki
aqueduct
jaguars
keepers
##flies
aleksandr
faust
assigns
ewing
bacterium
hurled
tricky
hungarians
integers
wallis
321
yamaha
##isha
hushed
oblivion
aviator
evangelist
friars
##eller
monograph
ode
##nary
airplanes
labourers
charms
##nee
1661
hagen
tnt
rudder
fiesta
transcript
dorothea
ska
inhibitor
maccabi
retorted
raining
encompassed
clauses
menacing
1642
lineman
##gist
vamps
##ape
##dick
gloom
##rera
dealings
easing
seekers
##nut
##pment
helens
unmanned
##anu
##isson
basics
##amy
##ckman
adjustments
1688
brutality
horne
##zell
sui
##55
##mable
aggregator
##thal
rhino
##drick
##vira
counters
zoom
##01
##rting
mn
montenegrin
packard
##unciation
##♭
##kki
reclaim
scholastic
thugs
pulsed
##icia
syriac
quan
saddam
banda
kobe
blaming
buddies
dissent
##lusion
##usia
corbett
jaya
delle
erratic
lexie
##hesis
435
amiga
hermes
##pressing
##leen
chapels
gospels
jamal
##uating
compute
revolving
warp
##sso
##thes
armory
##eras
##gol
antrim
loki
##kow
##asian
##good
##zano
braid
handwriting
subdistrict
funky
pantheon
##iculate
concurrency
estimation
improper
juliana
##his
newcomers
johnstone
staten
communicated
##oco
##alle
sausage
stormy
##stered
##tters
superfamily
##grade
acidic
collateral
tabloid
##oped
##rza
bladder
austen
##ellant
mcgraw
##hay
hannibal
mein
aquino
lucifer
wo
badger
boar
cher
christensen
greenberg
interruption
##kken
jem
244
mocked
bottoms
cambridgeshire
##lide
sprawling
##bbly
eastwood
ghent
synth
##buck
advisers
##bah
nominally
hapoel
qu
daggers
estranged
fabricated
towels
vinnie
wcw
misunderstanding
anglia
nothin
unmistakable
##dust
##lova
chilly
marquette
truss
##edge
##erine
reece
##lty
##chemist
##connected
272
308
41st
bash
raion
waterfalls
##ump
##main
labyrinth
queue
theorist
##istle
bharatiya
flexed
soundtracks
rooney
leftist
patrolling
wharton
plainly
alleviate
eastman
schuster
topographic
engages
immensely
unbearable
fairchild
1620
dona
lurking
parisian
oliveira
ia
indictment
hahn
bangladeshi
##aster
vivo
##uming
##ential
antonia
expects
indoors
kildare
harlan
##logue
##ogenic
##sities
forgiven
##wat
childish
tavi
##mide
##orra
plausible
grimm
successively
scooted
##bola
##dget
##rith
spartans
emery
flatly
azure
epilogue
##wark
flourish
##iny
##tracted
##overs
##oshi
bestseller
distressed
receipt
spitting
hermit
topological
##cot
drilled
subunit
francs
##layer
eel
##fk
##itas
octopus
footprint
petitions
ufo
##say
##foil
interfering
leaking
palo
##metry
thistle
valiant
##pic
narayan
mcpherson
##fast
gonzales
##ym
##enne
dustin
novgorod
solos
##zman
doin
##raph
##patient
##meyer
soluble
ashland
cuffs
carole
pendleton
whistling
vassal
##river
deviation
revisited
constituents
rallied
rotate
loomed
##eil
##nting
amateurs
augsburg
auschwitz
crowns
skeletons
##cona
bonnet
257
dummy
globalization
simeon
sleeper
mandal
differentiated
##crow
##mare
milne
bundled
exasperated
talmud
owes
segregated
##feng
##uary
dentist
piracy
props
##rang
devlin
##torium
malicious
paws
##laid
dependency
##ergy
##fers
##enna
258
pistons
rourke
jed
grammatical
tres
maha
wig
512
ghostly
jayne
##achal
##creen
##ilis
##lins
##rence
designate
##with
arrogance
cambodian
clones
showdown
throttle
twain
##ception
lobes
metz
nagoya
335
braking
##furt
385
roaming
##minster
amin
crippled
##37
##llary
indifferent
hoffmann
idols
intimidating
1751
261
influenza
memo
onions
1748
bandage
consciously
##landa
##rage
clandestine
observes
swiped
tangle
##ener
##jected
##trum
##bill
##lta
hugs
congresses
josiah
spirited
##dek
humanist
managerial
filmmaking
inmate
rhymes
debuting
grimsby
ur
##laze
duplicate
vigor
##tf
republished
bolshevik
refurbishment
antibiotics
martini
methane
newscasts
royale
horizons
levant
iain
visas
##ischen
paler
##around
manifestation
snuck
alf
chop
futile
pedestal
rehab
##kat
bmg
kerman
res
fairbanks
jarrett
abstraction
saharan
##zek
1746
procedural
clearer
kincaid
sash
luciano
##ffey
crunch
helmut
##vara
revolutionaries
##tute
creamy
leach
##mmon
1747
permitting
nes
plight
wendell
##lese
contra
ts
clancy
ipa
mach
staples
autopsy
disturbances
nueva
karin
pontiac
##uding
proxy
venerable
haunt
leto
bergman
expands
##helm
wal
##pipe
canning
celine
cords
obesity
##enary
intrusion
planner
##phate
reasoned
sequencing
307
harrow
##chon
##dora
marred
mcintyre
repay
tarzan
darting
248
harrisburg
margarita
repulsed
##hur
##lding
belinda
hamburger
novo
compliant
runways
bingham
registrar
skyscraper
ic
cuthbert
improvisation
livelihood
##corp
##elial
admiring
##dened
sporadic
believer
casablanca
popcorn
##29
asha
shovel
##bek
##dice
coiled
tangible
##dez
casper
elsie
resin
tenderness
rectory
##ivision
avail
sonar
##mori
boutique
##dier
guerre
bathed
upbringing
vaulted
sandals
blessings
##naut
##utnant
1680
306
foxes
pia
corrosion
hesitantly
confederates
crystalline
footprints
shapiro
tirana
valentin
drones
45th
microscope
shipments
texted
inquisition
wry
guernsey
unauthorized
resigning
760
ripple
schubert
stu
reassure
felony
##ardo
brittle
koreans
##havan
##ives
dun
implicit
tyres
##aldi
##lth
magnolia
##ehan
##puri
##poulos
aggressively
fei
gr
familiarity
##poo
indicative
##trust
fundamentally
jimmie
overrun
395
anchors
moans
##opus
britannia
armagh
##ggle
purposely
seizing
##vao
bewildered
mundane
avoidance
cosmopolitan
geometridae
quartermaster
caf
415
chatter
engulfed
gleam
purge
##icate
juliette
jurisprudence
guerra
revisions
##bn
casimir
brew
##jm
1749
clapton
cloudy
conde
hermitage
278
simulations
torches
vincenzo
matteo
##rill
hidalgo
booming
westbound
accomplishment
tentacles
unaffected
##sius
annabelle
flopped
sloping
##litz
dreamer
interceptor
vu
##loh
consecration
copying
messaging
breaker
climates
hospitalized
1752
torino
afternoons
winfield
witnessing
##teacher
breakers
choirs
sawmill
coldly
##ege
sipping
haste
uninhabited
conical
bibliography
pamphlets
severn
edict
##oca
deux
illnesses
grips
##pl
rehearsals
sis
thinkers
tame
##keepers
1690
acacia
reformer
##osed
##rys
shuffling
##iring
##shima
eastbound
ionic
rhea
flees
littered
##oum
rocker
vomiting
groaning
champ
overwhelmingly
civilizations
paces
sloop
adoptive
##tish
skaters
##vres
aiding
mango
##joy
nikola
shriek
##ignon
pharmaceuticals
##mg
tuna
calvert
gustavo
stocked
yearbook
##urai
##mana
computed
subsp
riff
hanoi
kelvin
hamid
moors
pastures
summons
jihad
nectar
##ctors
bayou
untitled
pleasing
vastly
republics
intellect
##η
##ulio
##tou
crumbling
stylistic
sb
##ی
consolation
frequented
h₂o
walden
widows
##iens
404
##ignment
chunks
improves
288
grit
recited
##dev
snarl
sociological
##arte
##gul
inquired
##held
bruise
clube
consultancy
homogeneous
hornets
multiplication
pasta
prick
savior
##grin
##kou
##phile
yoon
##gara
grimes
vanishing
cheering
reacting
bn
distillery
##quisite
##vity
coe
dockyard
massif
##jord
escorts
voss
##valent
byte
chopped
hawke
illusions
workings
floats
##koto
##vac
kv
annapolis
madden
##onus
alvaro
noctuidae
##cum
##scopic
avenge
steamboat
forte
illustrates
erika
##trip
570
dew
nationalities
bran
manifested
thirsty
diversified
muscled
reborn
##standing
arson
##lessness
##dran
##logram
##boys
##kushima
##vious
willoughby
##phobia
286
alsace
dashboard
yuki
##chai
granville
myspace
publicized
tricked
##gang
adjective
##ater
relic
reorganisation
enthusiastically
indications
saxe
##lassified
consolidate
iec
padua
helplessly
ramps
renaming
regulars
pedestrians
accents
convicts
inaccurate
lowers
mana
##pati
barrie
bjp
outta
someplace
berwick
flanking
invoked
marrow
sparsely
excerpts
clothed
rei
##ginal
wept
##straße
##vish
alexa
excel
##ptive
membranes
aquitaine
creeks
cutler
sheppard
implementations
ns
##dur
fragrance
budge
concordia
magnesium
marcelo
##antes
gladly
vibrating
##rral
##ggles
montrose
##omba
lew
seamus
1630
cocky
##ament
##uen
bjorn
##rrick
fielder
fluttering
##lase
methyl
kimberley
mcdowell
reductions
barbed
##jic
##tonic
aeronautical
condensed
distracting
##promising
huffed
##cala
##sle
claudius
invincible
missy
pious
balthazar
ci
##lang
butte
combo
orson
##dication
myriad
1707
silenced
##fed
##rh
coco
netball
yourselves
##oza
clarify
heller
peg
durban
etudes
offender
roast
blackmail
curvature
##woods
vile
309
illicit
suriname
##linson
overture
1685
bubbling
gymnast
tucking
##mming
##ouin
maldives
##bala
gurney
##dda
##eased
##oides
backside
pinto
jars
racehorse
tending
##rdial
baronetcy
wiener
duly
##rke
barbarian
cupping
flawed
##thesis
bertha
pleistocene
puddle
swearing
##nob
##tically
fleeting
prostate
amulet
educating
##mined
##iti
##tler
75th
jens
respondents
analytics
cavaliers
papacy
raju
##iente
##ulum
##tip
funnel
271
disneyland
##lley
sociologist
##iam
2500
faulkner
louvre
menon
##dson
276
##ower
afterlife
mannheim
peptide
referees
comedians
meaningless
##anger
##laise
fabrics
hurley
renal
sleeps
##bour
##icle
breakout
kristin
roadside
animator
clover
disdain
unsafe
redesign
##urity
firth
barnsley
portage
reset
narrows
268
commandos
expansive
speechless
tubular
##lux
essendon
eyelashes
smashwords
##yad
##bang
##claim
craved
sprinted
chet
somme
astor
wrocław
orton
266
bane
##erving
##uing
mischief
##amps
##sund
scaling
terre
##xious
impairment
offenses
undermine
moi
soy
contiguous
arcadia
inuit
seam
##tops
macbeth
rebelled
##icative
##iot
590
elaborated
frs
uniformed
##dberg
259
powerless
priscilla
stimulated
980
qc
arboretum
frustrating
trieste
bullock
##nified
enriched
glistening
intern
##adia
locus
nouvelle
ollie
ike
lash
starboard
ee
tapestry
headlined
hove
rigged
##vite
pollock
##yme
thrive
clustered
cas
roi
gleamed
olympiad
##lino
pressured
regimes
##hosis
##lick
ripley
##ophone
kickoff
gallon
rockwell
##arable
crusader
glue
revolutions
scrambling
1714
grover
##jure
englishman
aztec
263
contemplating
coven
ipad
preach
triumphant
tufts
##esian
rotational
##phus
328
falkland
##brates
strewn
clarissa
rejoin
environmentally
glint
banded
drenched
moat
albanians
johor
rr
maestro
malley
nouveau
shaded
taxonomy
v6
adhere
bunk
airfields
##ritan
1741
encompass
remington
tran
##erative
amelie
mazda
friar
morals
passions
##zai
breadth
vis
##hae
argus
burnham
caressing
insider
rudd
##imov
##mini
##rso
italianate
murderous
textual
wainwright
armada
bam
weave
timer
##taken
##nh
fra
##crest
ardent
salazar
taps
tunis
##ntino
allegro
gland
philanthropic
##chester
implication
##optera
esq
judas
noticeably
wynn
##dara
inched
indexed
crises
villiers
bandit
royalties
patterned
cupboard
interspersed
accessory
isla
kendrick
entourage
stitches
##esthesia
headwaters
##ior
interlude
distraught
draught
1727
##basket
biased
sy
transient
triad
subgenus
adapting
kidd
shortstop
##umatic
dimly
spiked
mcleod
reprint
nellie
pretoria
windmill
##cek
singled
##mps
273
reunite
##orous
747
bankers
outlying
##omp
##ports
##tream
apologies
cosmetics
patsy
##deh
##ocks
##yson
bender
nantes
serene
##nad
lucha
mmm
323
##cius
##gli
cmll
coinage
nestor
juarez
##rook
smeared
sprayed
twitching
sterile
irina
embodied
juveniles
enveloped
miscellaneous
cancers
dq
gulped
luisa
crested
swat
donegal
ref
##anov
##acker
hearst
mercantile
##lika
doorbell
ua
vicki
##alla
##som
bilbao
psychologists
stryker
sw
horsemen
turkmenistan
wits
##national
anson
mathew
screenings
##umb
rihanna
##agne
##nessy
aisles
##iani
##osphere
hines
kenton
saskatoon
tasha
truncated
##champ
##itan
mildred
advises
fredrik
interpreting
inhibitors
##athi
spectroscopy
##hab
##kong
karim
panda
##oia
##nail
##vc
conqueror
kgb
leukemia
##dity
arrivals
cheered
pisa
phosphorus
shielded
##riated
mammal
unitarian
urgently
chopin
sanitary
##mission
spicy
drugged
hinges
##tort
tipping
trier
impoverished
westchester
##caster
267
epoch
nonstop
##gman
##khov
aromatic
centrally
cerro
##tively
##vio
billions
modulation
sedimentary
283
facilitating
outrageous
goldstein
##eak
##kt
ld
maitland
penultimate
pollard
##dance
fleets
spaceship
vertebrae
##nig
alcoholism
als
recital
##bham
##ference
##omics
m2
##bm
trois
##tropical
##в
commemorates
##meric
marge
##raction
1643
670
cosmetic
ravaged
##ige
catastrophe
eng
##shida
albrecht
arterial
bellamy
decor
harmon
##rde
bulbs
synchronized
vito
easiest
shetland
shielding
wnba
##glers
##ssar
##riam
brianna
cumbria
##aceous
##rard
cores
thayer
##nsk
brood
hilltop
luminous
carts
keynote
larkin
logos
##cta
##ا
##mund
##quay
lilith
tinted
277
wrestle
mobilization
##uses
sequential
siam
bloomfield
takahashi
274
##ieving
presenters
ringo
blazed
witty
##oven
##ignant
devastation
haydn
harmed
newt
therese
##peed
gershwin
molina
rabbis
sudanese
001
innate
restarted
##sack
##fus
slices
wb
##shah
enroll
hypothetical
hysterical
1743
fabio
indefinite
warped
##hg
exchanging
525
unsuitable
##sboro
gallo
1603
bret
cobalt
homemade
##hunter
mx
operatives
##dhar
terraces
durable
latch
pens
whorls
##ctuated
##eaux
billing
ligament
succumbed
##gly
regulators
spawn
##brick
##stead
filmfare
rochelle
##nzo
1725
circumstance
saber
supplements
##nsky
##tson
crowe
wellesley
carrot
##9th
##movable
primate
drury
sincerely
topical
##mad
##rao
callahan
kyiv
smarter
tits
undo
##yeh
announcements
anthologies
barrio
nebula
##islaus
##shaft
##tyn
bodyguards
2021
assassinate
barns
emmett
scully
##mah
##yd
##eland
##tino
##itarian
demoted
gorman
lashed
prized
adventist
writ
##gui
alla
invertebrates
##ausen
1641
amman
1742
align
healy
redistribution
##gf
##rize
insulation
##drop
adherents
hezbollah
vitro
ferns
yanking
269
php
registering
uppsala
cheerleading
confines
mischievous
tully
##ross
49th
docked
roam
stipulated
pumpkin
##bry
prompt
##ezer
blindly
shuddering
craftsmen
frail
scented
katharine
scramble
shaggy
sponge
helix
zaragoza
279
##52
43rd
backlash
fontaine
seizures
posse
cowan
nonfiction
telenovela
wwii
hammered
undone
##gpur
encircled
irs
##ivation
artefacts
oneself
searing
smallpox
##belle
##osaurus
shandong
breached
upland
blushing
rankin
infinitely
psyche
tolerated
docking
evicted
##col
unmarked
##lving
gnome
lettering
litres
musique
##oint
benevolent
##jal
blackened
##anna
mccall
racers
tingle
##ocene
##orestation
introductions
radically
292
##hiff
##باد
1610
1739
munchen
plead
##nka
condo
scissors
##sight
##tens
apprehension
##cey
##yin
hallmark
watering
formulas
sequels
##llas
aggravated
bae
commencing
##building
enfield
prohibits
marne
vedic
civilized
euclidean
jagger
beforehand
blasts
dumont
##arney
##nem
740
conversions
hierarchical
rios
simulator
##dya
##lellan
hedges
oleg
thrusts
shadowed
darby
maximize
1744
gregorian
##nded
##routed
sham
unspecified
##hog
emory
factual
##smo
##tp
fooled
##rger
ortega
wellness
marlon
##oton
##urance
casket
keating
ley
enclave
##ayan
char
influencing
jia
##chenko
412
ammonia
erebidae
incompatible
violins
cornered
##arat
grooves
astronauts
columbian
rampant
fabrication
kyushu
mahmud
vanish
##dern
mesopotamia
##lete
ict
##rgen
caspian
kenji
pitted
##vered
999
grimace
roanoke
tchaikovsky
twinned
##analysis
##awan
xinjiang
arias
clemson
kazakh
sizable
1662
##khand
##vard
plunge
tatum
vittorio
##nden
cholera
##dana
##oper
bracing
indifference
projectile
superliga
##chee
realises
upgrading
299
porte
retribution
##vies
nk
stil
##resses
ama
bureaucracy
blackberry
bosch
testosterone
collapses
greer
##pathic
ioc
fifties
malls
##erved
bao
baskets
adolescents
siegfried
##osity
##tosis
mantra
detecting
existent
fledgling
##cchi
dissatisfied
gan
telecommunication
mingled
sobbed
6000
controversies
outdated
taxis
##raus
fright
slams
##lham
##fect
##tten
detectors
fetal
tanned
##uw
fray
goth
olympian
skipping
mandates
scratches
sheng
unspoken
hyundai
tracey
hotspur
restrictive
##buch
americana
mundo
##bari
burroughs
diva
vulcan
##6th
distinctions
thumping
##ngen
mikey
sheds
fide
rescues
springsteen
vested
valuation
##ece
##ely
pinnacle
rake
sylvie
##edo
almond
quivering
##irus
alteration
faltered
##wad
51st
hydra
ticked
##kato
recommends
##dicated
antigua
arjun
stagecoach
wilfred
trickle
pronouns
##pon
aryan
nighttime
##anian
gall
pea
stitch
##hei
leung
milos
##dini
eritrea
nexus
starved
snowfall
kant
parasitic
cot
discus
hana
strikers
appleton
kitchens
##erina
##partisan
##itha
##vius
disclose
metis
##channel
1701
tesla
##vera
fitch
1735
blooded
##tila
decimal
##tang
##bai
cyclones
eun
bottled
peas
pensacola
basha
bolivian
crabs
boil
lanterns
partridge
roofed
1645
necks
##phila
opined
patting
##kla
##lland
chuckles
volta
whereupon
##nche
devout
euroleague
suicidal
##dee
inherently
involuntary
knitting
nasser
##hide
puppets
colourful
courageous
southend
stills
miraculous
hodgson
richer
rochdale
ethernet
greta
uniting
prism
umm
##haya
##itical
##utation
deterioration
pointe
prowess
##ropriation
lids
scranton
billings
subcontinent
##koff
##scope
brute
kellogg
psalms
degraded
##vez
stanisław
##ructured
ferreira
pun
astonishing
gunnar
##yat
arya
prc
gottfried
##tight
excursion
##ographer
dina
##quil
##nare
huffington
illustrious
wilbur
gundam
verandah
##zard
naacp
##odle
constructive
fjord
kade
##naud
generosity
thrilling
baseline
cayman
frankish
plastics
accommodations
zoological
##fting
cedric
qb
motorized
##dome
##otted
squealed
tackled
canucks
budgets
situ
asthma
dail
gabled
grasslands
whimpered
writhing
judgments
##65
minnie
pv
##carbon
bananas
grille
domes
monique
odin
maguire
markham
tierney
##estra
##chua
libel
poke
speedy
atrium
laval
notwithstanding
##edly
fai
kala
##sur
robb
##sma
listings
luz
supplementary
tianjin
##acing
enzo
jd
ric
scanner
croats
transcribed
##49
arden
cv
##hair
##raphy
##lver
##uy
357
seventies
staggering
alam
horticultural
hs
regression
timbers
blasting
##ounded
montagu
manipulating
##cit
catalytic
1550
troopers
##meo
condemnation
fitzpatrick
##oire
##roved
inexperienced
1670
castes
##lative
outing
314
dubois
flicking
quarrel
ste
learners
1625
iq
whistled
##class
282
classify
tariffs
temperament
355
folly
liszt
##yles
immersed
jordanian
ceasefire
apparel
extras
maru
fished
##bio
harta
stockport
assortment
craftsman
paralysis
transmitters
##cola
blindness
##wk
fatally
proficiency
solemnly
##orno
repairing
amore
groceries
ultraviolet
##chase
schoolhouse
##tua
resurgence
nailed
##otype
##×
ruse
saliva
diagrams
##tructing
albans
rann
thirties
1b
antennas
hilarious
cougars
paddington
stats
##eger
breakaway
ipod
reza
authorship
prohibiting
scoffed
##etz
##ttle
conscription
defected
trondheim
##fires
ivanov
keenan
##adan
##ciful
##fb
##slow
locating
##ials
##tford
cadiz
basalt
blankly
interned
rags
rattling
##tick
carpathian
reassured
sync
bum
guildford
iss
staunch
##onga
astronomers
sera
sofie
emergencies
susquehanna
##heard
duc
mastery
vh1
williamsburg
bayer
buckled
craving
##khan
##rdes
bloomington
##write
alton
barbecue
##bians
justine
##hri
##ndt
delightful
smartphone
newtown
photon
retrieval
peugeot
hissing
##monium
##orough
flavors
lighted
relaunched
tainted
##games
##lysis
anarchy
microscopic
hopping
adept
evade
evie
##beau
inhibit
sinn
adjustable
hurst
intuition
wilton
cisco
44th
lawful
lowlands
stockings
thierry
##dalen
##hila
##nai
fates
prank
tb
maison
lobbied
provocative
1724
4a
utopia
##qual
carbonate
gujarati
purcell
##rford
curtiss
##mei
overgrown
arenas
mediation
swallows
##rnik
respectful
turnbull
##hedron
##hope
alyssa
ozone
##ʻi
ami
gestapo
johansson
snooker
canteen
cuff
declines
empathy
stigma
##ags
##iner
##raine
taxpayers
gui
volga
##wright
##copic
lifespan
overcame
tattooed
enactment
giggles
##ador
##camp
barrington
bribe
obligatory
orbiting
peng
##enas
elusive
sucker
##vating
cong
hardship
empowered
anticipating
estrada
cryptic
greasy
detainees
planck
sudbury
plaid
dod
marriott
kayla
##ears
##vb
##zd
mortally
##hein
cognition
radha
319
liechtenstein
meade
richly
argyle
harpsichord
liberalism
trumpets
lauded
tyrant
salsa
tiled
lear
promoters
reused
slicing
trident
##chuk
##gami
##lka
cantor
checkpoint
##points
gaul
leger
mammalian
##tov
##aar
##schaft
doha
frenchman
nirvana
##vino
delgado
headlining
##eron
##iography
jug
tko
1649
naga
intersections
##jia
benfica
nawab
##suka
ashford
gulp
##deck
##vill
##rug
brentford
frazier
pleasures
dunne
potsdam
shenzhen
dentistry
##tec
flanagan
##dorff
##hear
chorale
dinah
prem
quezon
##rogated
relinquished
sutra
terri
##pani
flaps
##rissa
poly
##rnet
homme
aback
##eki
linger
womb
##kson
##lewood
doorstep
orthodoxy
threaded
westfield
##rval
dioceses
fridays
subsided
##gata
loyalists
##biotic
##ettes
letterman
lunatic
prelate
tenderly
invariably
souza
thug
winslow
##otide
furlongs
gogh
jeopardy
##runa
pegasus
##umble
humiliated
standalone
tagged
##roller
freshmen
klan
##bright
attaining
initiating
transatlantic
logged
viz
##uance
1723
combatants
intervening
stephane
chieftain
despised
grazed
317
cdc
galveston
godzilla
macro
simulate
##planes
parades
##esses
960
##ductive
##unes
equator
overdose
##cans
##hosh
##lifting
joshi
epstein
sonora
treacherous
aquatics
manchu
responsive
##sation
supervisory
##christ
##llins
##ibar
##balance
##uso
kimball
karlsruhe
mab
##emy
ignores
phonetic
reuters
spaghetti
820
almighty
danzig
rumbling
tombstone
designations
lured
outset
##felt
supermarkets
##wt
grupo
kei
kraft
susanna
##blood
comprehension
genealogy
##aghan
##verted
redding
##ythe
1722
bowing
##pore
##roi
lest
sharpened
fulbright
valkyrie
sikhs
##unds
swans
bouquet
merritt
##tage
##venting
commuted
redhead
clerks
leasing
cesare
dea
hazy
##vances
fledged
greenfield
servicemen
##gical
armando
blackout
dt
sagged
downloadable
intra
potion
pods
##4th
##mism
xp
attendants
gambia
stale
##ntine
plump
asteroids
rediscovered
buds
flea
hive
##neas
1737
classifications
debuts
##eles
olympus
scala
##eurs
##gno
##mute
hummed
sigismund
visuals
wiggled
await
pilasters
clench
sulfate
##ances
bellevue
enigma
trainee
snort
##sw
clouded
denim
##rank
##rder
churning
hartman
lodges
riches
sima
##missible
accountable
socrates
regulates
mueller
##cr
1702
avoids
solids
himalayas
nutrient
pup
##jevic
squat
fades
nec
##lates
##pina
##rona
##ου
privateer
tequila
##gative
##mpton
apt
hornet
immortals
##dou
asturias
cleansing
dario
##rries
##anta
etymology
servicing
zhejiang
##venor
##nx
horned
erasmus
rayon
relocating
£10
##bags
escalated
promenade
stubble
2010s
artisans
axial
liquids
mora
sho
yoo
##tsky
bundles
oldies
##nally
notification
bastion
##ths
sparkle
##lved
1728
leash
pathogen
highs
##hmi
immature
880
gonzaga
ignatius
mansions
monterrey
sweets
bryson
##loe
polled
regatta
brightest
pei
rosy
squid
hatfield
payroll
addict
meath
cornerback
heaviest
lodging
##mage
capcom
rippled
##sily
barnet
mayhem
ymca
snuggled
rousseau
##cute
blanchard
284
fragmented
leighton
chromosomes
risking
##md
##strel
##utter
corinne
coyotes
cynical
hiroshi
yeomanry
##ractive
ebook
grading
mandela
plume
agustin
magdalene
##rkin
bea
femme
trafford
##coll
##lun
##tance
52nd
fourier
upton
##mental
camilla
gust
iihf
islamabad
longevity
##kala
feldman
netting
##rization
endeavour
foraging
mfa
orr
##open
greyish
contradiction
graz
##ruff
handicapped
marlene
tweed
oaxaca
spp
campos
miocene
pri
configured
cooks
pluto
cozy
pornographic
##entes
70th
fairness
glided
jonny
lynne
rounding
sired
##emon
##nist
remade
uncover
##mack
complied
lei
newsweek
##jured
##parts
##enting
##pg
293
finer
guerrillas
athenian
deng
disused
stepmother
accuse
gingerly
seduction
521
confronting
##walker
##going
gora
nostalgia
sabres
virginity
wrenched
##minated
syndication
wielding
eyre
##56
##gnon
##igny
behaved
taxpayer
sweeps
##growth
childless
gallant
##ywood
amplified
geraldine
scrape
##ffi
babylonian
fresco
##rdan
##kney
##position
1718
restricting
tack
fukuoka
osborn
selector
partnering
##dlow
318
gnu
kia
tak
whitley
gables
##54
##mania
mri
softness
immersion
##bots
##evsky
1713
chilling
insignificant
pcs
##uis
elites
lina
purported
supplemental
teaming
##americana
##dding
##inton
proficient
rouen
##nage
##rret
niccolo
selects
##bread
fluffy
1621
gruff
knotted
mukherjee
polgara
thrash
nicholls
secluded
smoothing
thru
corsica
loaf
whitaker
inquiries
##rrier
##kam
indochina
289
marlins
myles
peking
##tea
extracts
pastry
superhuman
connacht
vogel
##ditional
##het
##udged
##lash
gloss
quarries
refit
teaser
##alic
##gaon
20s
materialized
sling
camped
pickering
tung
tracker
pursuant
##cide
cranes
soc
##cini
##typical
##viere
anhalt
overboard
workout
chores
fares
orphaned
stains
##logie
fenton
surpassing
joyah
triggers
##itte
grandmaster
##lass
##lists
clapping
fraudulent
ledger
nagasaki
##cor
##nosis
##tsa
eucalyptus
tun
##icio
##rney
##tara
dax
heroism
ina
wrexham
onboard
unsigned
##dates
moshe
galley
winnie
droplets
exiles
praises
watered
noodles
##aia
fein
adi
leland
multicultural
stink
bingo
comets
erskine
modernized
canned
constraint
domestically
chemotherapy
featherweight
stifled
##mum
darkly
irresistible
refreshing
hasty
isolate
##oys
kitchener
planners
##wehr
cages
yarn
implant
toulon
elects
childbirth
yue
##lind
##lone
cn
rightful
sportsman
junctions
remodeled
specifies
##rgh
291
##oons
complimented
##urgent
lister
ot
##logic
bequeathed
cheekbones
fontana
gabby
##dial
amadeus
corrugated
maverick
resented
triangles
##hered
##usly
nazareth
tyrol
1675
assent
poorer
sectional
aegean
##cous
296
nylon
ghanaian
##egorical
##weig
cushions
forbid
fusiliers
obstruction
somerville
##scia
dime
earrings
elliptical
leyte
oder
polymers
timmy
atm
midtown
piloted
settles
continual
externally
mayfield
##uh
enrichment
henson
keane
persians
1733
benji
braden
pep
324
##efe
contenders
pepsi
valet
##isches
298
##asse
##earing
goofy
stroll
##amen
authoritarian
occurrences
adversary
ahmedabad
tangent
toppled
dorchester
1672
modernism
marxism
islamist
charlemagne
exponential
racks
unicode
brunette
mbc
pic
skirmish
##bund
##lad
##powered
##yst
hoisted
messina
shatter
##ctum
jedi
vantage
##music
##neil
clemens
mahmoud
corrupted
authentication
lowry
nils
##washed
omnibus
wounding
jillian
##itors
##opped
serialized
narcotics
handheld
##arm
##plicity
intersecting
stimulating
##onis
crate
fellowships
hemingway
casinos
climatic
fordham
copeland
drip
beatty
leaflets
robber
brothel
madeira
##hedral
sphinx
ultrasound
##vana
valor
forbade
leonid
villas
##aldo
duane
marquez
##cytes
disadvantaged
forearms
kawasaki
reacts
consular
lax
uncles
uphold
##hopper
concepcion
dorsey
lass
##izan
arching
passageway
1708
researches
tia
internationals
##graphs
##opers
distinguishes
javanese
divert
##uven
plotted
##listic
##rwin
##erik
##tify
affirmative
signifies
validation
##bson
kari
felicity
georgina
zulu
##eros
##rained
##rath
overcoming
##dot
argyll
##rbin
1734
chiba
ratification
windy
earls
parapet
##marks
hunan
pristine
astrid
punta
##gart
brodie
##kota
##oder
malaga
minerva
rouse
##phonic
bellowed
pagoda
portals
reclamation
##gur
##odies
##⁄₄
parentheses
quoting
allergic
palette
showcases
benefactor
heartland
nonlinear
##tness
bladed
cheerfully
scans
##ety
##hone
1666
girlfriends
pedersen
hiram
sous
##liche
##nator
1683
##nery
##orio
##umen
bobo
primaries
smiley
##cb
unearthed
uniformly
fis
metadata
1635
ind
##oted
recoil
##titles
##tura
##ια
406
hilbert
jamestown
mcmillan
tulane
seychelles
##frid
antics
coli
fated
stucco
##grants
1654
bulky
accolades
arrays
caledonian
carnage
optimism
puebla
##tative
##cave
enforcing
rotherham
seo
dunlop
aeronautics
chimed
incline
zoning
archduke
hellenistic
##oses
##sions
candi
thong
##ople
magnate
rustic
##rsk
projective
slant
##offs
danes
hollis
vocalists
##ammed
congenital
contend
gesellschaft
##ocating
##pressive
douglass
quieter
##cm
##kshi
howled
salim
spontaneously
townsville
buena
southport
##bold
kato
1638
faerie
stiffly
##vus
##rled
297
flawless
realising
taboo
##7th
bytes
straightening
356
jena
##hid
##rmin
cartwright
berber
bertram
soloists
411
noses
417
coping
fission
hardin
inca
##cen
1717
mobilized
vhf
##raf
biscuits
curate
##85
##anial
331
gaunt
neighbourhoods
1540
##abas
blanca
bypassed
sockets
behold
coincidentally
##bane
nara
shave
splinter
terrific
##arion
##erian
commonplace
juris
redwood
waistband
boxed
caitlin
fingerprints
jennie
naturalized
##ired
balfour
craters
jody
bungalow
hugely
quilt
glitter
pigeons
undertaker
bulging
constrained
goo
##sil
##akh
assimilation
reworked
##person
persuasion
##pants
felicia
##cliff
##ulent
1732
explodes
##dun
##inium
##zic
lyman
vulture
hog
overlook
begs
northwards
ow
spoil
##urer
fatima
favorably
accumulate
sargent
sorority
corresponded
dispersal
kochi
toned
##imi
##lita
internacional
newfound
##agger
##lynn
##rigue
booths
peanuts
##eborg
medicare
muriel
nur
##uram
crates
millennia
pajamas
worsened
##breakers
jimi
vanuatu
yawned
##udeau
carousel
##hony
hurdle
##ccus
##mounted
##pod
rv
##eche
airship
ambiguity
compulsion
recapture
##claiming
arthritis
##osomal
1667
asserting
ngc
sniffing
dade
discontent
glendale
ported
##amina
defamation
rammed
##scent
fling
livingstone
##fleet
875
##ppy
apocalyptic
comrade
lcd
##lowe
cessna
eine
persecuted
subsistence
demi
hoop
reliefs
710
coptic
progressing
stemmed
perpetrators
1665
priestess
##nio
dobson
ebony
rooster
itf
tortricidae
##bbon
##jian
cleanup
##jean
##øy
1721
eighties
taxonomic
holiness
##hearted
##spar
antilles
showcasing
stabilized
##nb
gia
mascara
michelangelo
dawned
##uria
##vinsky
extinguished
fitz
grotesque
£100
##fera
##loid
##mous
barges
neue
throbbed
cipher
johnnie
##a1
##mpt
outburst
##swick
spearheaded
administrations
c1
heartbreak
pixels
pleasantly
##enay
lombardy
plush
##nsed
bobbie
##hly
reapers
tremor
xiang
minogue
substantive
hitch
barak
##wyl
kwan
##encia
910
obscene
elegance
indus
surfer
bribery
conserve
##hyllum
##masters
horatio
##fat
apes
rebound
psychotic
##pour
iteration
##mium
##vani
botanic
horribly
antiques
dispose
paxton
##hli
##wg
timeless
1704
disregard
engraver
hounds
##bau
##version
looted
uno
facilitates
groans
masjid
rutland
antibody
disqualification
decatur
footballers
quake
slacks
48th
rein
scribe
stabilize
commits
exemplary
tho
##hort
##chison
pantry
traversed
##hiti
disrepair
identifiable
vibrated
baccalaureate
##nnis
csa
interviewing
##iensis
##raße
greaves
wealthiest
343
classed
jogged
£5
##58
##atal
illuminating
knicks
respecting
##uno
scrubbed
##iji
##dles
kruger
moods
growls
raider
silvia
chefs
kam
vr
cree
percival
##terol
gunter
counterattack
defiant
henan
ze
##rasia
##riety
equivalence
submissions
##fra
##thor
bautista
mechanically
##heater
cornice
herbal
templar
##mering
outputs
ruining
ligand
renumbered
extravagant
mika
blockbuster
eta
insurrection
##ilia
darkening
ferocious
pianos
strife
kinship
##aer
melee
##anor
##iste
##may
##oue
decidedly
weep
##jad
##missive
##ppel
354
puget
unease
##gnant
1629
hammering
kassel
ob
wessex
##lga
bromwich
egan
paranoia
utilization
##atable
##idad
contradictory
provoke
##ols
##ouring
##tangled
knesset
##very
##lette
plumbing
##sden
##¹
greensboro
occult
sniff
338
zev
beaming
gamer
haggard
mahal
##olt
##pins
mendes
utmost
briefing
gunnery
##gut
##pher
##zh
##rok
1679
khalifa
sonya
##boot
principals
urbana
wiring
##liffe
##minating
##rrado
dahl
nyu
skepticism
np
townspeople
ithaca
lobster
somethin
##fur
##arina
##−1
freighter
zimmerman
biceps
contractual
##herton
amend
hurrying
subconscious
##anal
336
meng
clermont
spawning
##eia
##lub
dignitaries
impetus
snacks
spotting
twigs
##bilis
##cz
##ouk
libertadores
nic
skylar
##aina
##firm
gustave
asean
##anum
dieter
legislatures
flirt
bromley
trolls
umar
##bbies
##tyle
blah
parc
bridgeport
crank
negligence
##nction
46th
constantin
molded
bandages
seriousness
00pm
siegel
carpets
compartments
upbeat
statehood
##dner
##edging
marko
730
platt
##hane
paving
##iy
1738
abbess
impatience
limousine
nbl
##talk
441
lucille
mojo
nightfall
robbers
##nais
karel
brisk
calves
replicate
ascribed
telescopes
##olf
intimidated
##reen
ballast
specialization
##sit
aerodynamic
caliphate
rainer
visionary
##arded
epsilon
##aday
##onte
aggregation
auditory
boosted
reunification
kathmandu
loco
robyn
402
acknowledges
appointing
humanoid
newell
redeveloped
restraints
##tained
barbarians
chopper
1609
italiana
##lez
##lho
investigates
wrestlemania
##anies
##bib
690
##falls
creaked
dragoons
gravely
minions
stupidity
volley
##harat
##week
musik
##eries
##uously
fungal
massimo
semantics
malvern
##ahl
##pee
discourage
embryo
imperialism
1910s
[...]
